<unk>	0
<pad>	0
<s>	0
</s>	0
▁the	-3.06106
▁,	-3.1853
s	-3.45452
▁.	-3.50215
▁of	-3.78172
ed	-3.80844
▁and	-3.87326
▁	-3.9043
▁to	-4.08906
▁in	-4.12383
▁a	-4.19641
▁=	-4.40608
▁"	-4.49734
▁was	-4.71274
ing	-4.73519
▁'	-4.84331
▁@-@	-4.91507
▁The	-4.93248
ly	-5.09676
▁on	-5.14709
▁for	-5.16167
▁that	-5.17483
▁with	-5.18148
▁as	-5.26638
y	-5.28879
▁by	-5.29755
▁)	-5.32707
▁(	-5.32768
▁is	-5.45169
▁his	-5.61685
.	-5.62369
▁from	-5.62859
e	-5.63009
▁at	-5.66628
d	-5.80459
▁were	-5.82395
▁be	-5.85969
▁it	-5.87614
▁he	-5.91438
▁an	-5.95484
▁In	-5.99174
▁had	-6.01642
▁which	-6.07739
▁not	-6.3728
▁but	-6.37809
▁are	-6.38083
▁;	-6.44421
▁first	-6.44915
▁their	-6.46885
▁–	-6.47281
▁:	-6.49685
▁A	-6.49982
t	-6.50004
▁also	-6.50532
▁her	-6.50652
▁or	-6.56701
▁who	-6.56832
n	-6.58866
▁one	-6.59367
▁its	-6.59565
▁have	-6.59865
@	-6.61345
er	-6.62591
▁two	-6.64105
▁He	-6.64134
▁@	-6.6518
▁been	-6.67287
▁has	-6.67314
▁@,@	-6.69238
▁this	-6.71541
▁I	-6.71767
▁after	-6.82144
▁1	-6.82247
▁time	-6.82956
th	-6.83504
a	-6.8464
▁would	-6.84873
▁It	-6.87324
▁into	-6.88128
▁other	-6.89835
▁over	-6.98215
▁more	-6.99385
▁they	-7.02296
r	-7.05472
▁2	-7.05894
▁she	-7.06175
▁when	-7.06233
▁all	-7.08978
▁him	-7.09282
▁up	-7.09419
during	-7.13293
▁out	-7.13854
▁most	-7.1527
▁game	-7.15626
▁On	-7.17601
es	-7.18109
▁film	-7.18335
▁than	-7.19421
▁about	-7.19454
▁3	-7.20297
▁only	-7.20312
▁between	-7.21609
▁later	-7.22478
▁three	-7.22833
▁new	-7.23074
▁whil	-7.2446
▁through	-7.25376
o	-7.26682
▁5	-7.32883
ever	-7.33706
▁made	-7.33988
▁season	-7.35014
▁where	-7.35461
▁New	-7.36275
al	-7.36328
▁000	-7.36986
▁some	-7.37007
▁such	-7.37635
▁year	-7.37913
ies	-7.38649
▁before	-7.39131
▁4	-7.39858
in	-7.40703
▁This	-7.42965
▁/	-7.43078
▁second	-7.43302
▁years	-7.45453
▁large	-7.45502
▁part	-7.46089
▁used	-7.46119
▁under	-7.46575
▁them	-7.47726
▁number	-7.48777
st	-7.49951
▁album	-7.50109
▁against	-7.50406
▁being	-7.50461
▁song	-7.50721
came	-7.51457
us	-7.5415
▁can	-7.54944
▁including	-7.55342
▁—	-7.55536
▁United	-7.56529
▁well	-7.56876
▁no	-7.57138
▁both	-7.57181
▁there	-7.57201
▁After	-7.57481
▁series	-7.58242
▁high	-7.58465
on	-7.59303
▁team	-7.60453
▁then	-7.60883
▁did	-7.62024
▁B	-7.62298
▁6	-7.624
▁episode	-7.62898
▁10	-7.62935
▁four	-7.63405
est	-7.63928
▁like	-7.64677
▁al	-7.65214
▁so	-7.65228
▁American	-7.65721
▁said	-7.66813
▁work	-7.66921
though	-7.67234
▁many	-7.67466
▁could	-7.68093
▁several	-7.68695
i	-7.69012
▁found	-7.69119
▁known	-7.70585
▁C	-7.71902
▁return	-7.73183
▁began	-7.73405
▁near	-7.74263
▁7	-7.74293
m	-7.74419
▁place	-7.75953
▁D	-7.76116
▁day	-7.76285
▁early	-7.7676
▁U	-7.7712
▁As	-7.77808
▁until	-7.77883
▁end	-7.78118
▁8	-7.78259
▁called	-7.78395
▁use	-7.78649
▁She	-7.79063
▁million	-7.80775
▁how	-7.80826
▁remain	-7.81022
▁At	-7.81267
▁show	-7.81379
▁along	-7.82599
l	-7.82744
▁back	-7.83367
▁British	-7.8343
▁long	-7.84537
$	-7.85232
▁these	-7.85949
▁9	-7.86221
▁people	-7.86765
▁original	-7.86789
▁de	-7.86791
▁receiv	-7.86798
▁September	-7.88428
▁How	-7.89216
▁20	-7.8941
▁15	-7.89475
▁same	-7.89536
▁final	-7.89787
▁music	-7.89916
▁World	-7.90005
▁August	-7.90141
▁0	-7.9025
▁12	-7.90312
▁because	-7.90476
▁States	-7.90655
▁War	-7.90737
▁may	-7.91018
▁M	-7.92178
▁around	-7.92621
▁May	-7.92749
▁km	-7.93038
out	-7.93472
▁state	-7.93999
▁John	-7.94574
▁off	-7.95298
▁order	-7.95407
▁following	-7.95634
▁Al	-7.96366
man	-7.97086
▁October	-7.97303
▁m	-7.97682
▁any	-7.97968
able	-7.98146
▁area	-7.98156
▁S	-7.98366
▁start	-7.98727
▁each	-7.9951
▁five	-7.99866
▁life	-8.00059
▁main	-8.00217
▁lead	-8.00442
▁century	-8.00455
um	-8.01071
▁single	-8.0195
[	-8.02093
▁16	-8.02282
▁small	-8.02405
▁June	-8.02646
▁war	-8.02664
▁city	-8.03363
▁down	-8.04158
▁US	-8.04515
▁July	-8.04652
▁R	-8.05209
▁November	-8.05307
▁result	-8.05852
▁11	-8.06283
▁since	-8.06496
S	-8.06863
▁March	-8.07049
ity	-8.07067
▁York	-8.07108
▁April	-8.07222
▁Dur	-8.07518
▁will	-8.07894
▁set	-8.07939
▁group	-8.09511
en	-8.09626
▁great	-8.09992
▁attack	-8.10587
▁allow	-8.10641
▁what	-8.10839
ic	-8.1087
▁line	-8.10925
▁left	-8.11743
▁E	-8.12299
▁government	-8.12424
▁consider	-8.12443
▁They	-8.12516
▁last	-8.12689
▁name	-8.12723
▁North	-8.12835
▁system	-8.12837
▁character	-8.12954
▁December	-8.13201
▁third	-8.1326
▁18	-8.13291
▁reach	-8.13299
▁release	-8.13309
▁due	-8.13363
▁much	-8.14307
▁home	-8.14424
▁13	-8.14457
▁bas	-8.14518
▁if	-8.14693
▁January	-8.14796
▁another	-8.14963
▁included	-8.15111
▁own	-8.15188
▁...	-8.15399
▁17	-8.155
▁un	-8.15595
le	-8.15813
▁played	-8.16133
▁wrote	-8.16414
▁South	-8.1654
▁When	-8.16566
▁open	-8.16681
▁change	-8.16912
▁force	-8.17195
▁band	-8.17198
▁death	-8.1724
▁won	-8.18028
▁14	-8.18927
▁30	-8.1958
▁P	-8.19771
took	-8.19799
▁record	-8.19862
▁six	-8.20185
▁described	-8.21034
▁previous	-8.21043
▁family	-8.21298
▁led	-8.21432
▁support	-8.21488
▁short	-8.21617
▁just	-8.22112
▁appear	-8.22153
▁include	-8.22437
ce	-8.22764
▁named	-8.2277
▁make	-8.22893
▁ship	-8.23174
▁world	-8.23786
▁F	-8.23995
▁now	-8.24184
▁By	-8.24849
▁north	-8.25073
▁play	-8.25742
▁late	-8.26161
▁very	-8.26264
those	-8.2642
▁form	-8.26694
▁February	-8.27081
▁O	-8.27131
▁still	-8.27283
▁German	-8.27552
▁next	-8.27737
▁species	-8.27768
▁perform	-8.27877
▁T	-8.27891
▁best	-8.28354
▁video	-8.28763
an	-8.29071
▁match	-8.29223
▁men	-8.29496
▁major	-8.29677
▁His	-8.30127
▁National	-8.30263
▁No	-8.30295
▁role	-8.30669
▁built	-8.31071
▁power	-8.31119
▁French	-8.31139
▁held	-8.31152
▁do	-8.31306
▁2010	-8.31456
▁former	-8.318
▁old	-8.31847
▁100	-8.32249
▁house	-8.32988
▁way	-8.33182
▁again	-8.33201
▁direct	-8.33515
▁storm	-8.33542
▁per	-8.33585
▁local	-8.33852
▁south	-8.33865
▁side	-8.34303
▁games	-8.35173
▁title	-8.35192
▁There	-8.35301
▁public	-8.35493
▁St	-8.35625
▁you	-8.35781
▁take	-8.36053
▁19	-8.36058
▁water	-8.36117
▁school	-8.36376
▁2008	-8.36782
▁period	-8.36805
▁even	-8.36866
▁2009	-8.37265
▁few	-8.37415
▁help	-8.37612
▁top	-8.38376
▁2011	-8.38986
▁often	-8.39016
▁continued	-8.39021
▁book	-8.39103
▁among	-8.39275
▁follow	-8.39312
▁career	-8.39365
▁similar	-8.39428
▁25	-8.40172
▁members	-8.40443
▁days	-8.40487
▁production	-8.40567
&	-8.40762
▁England	-8.40788
▁For	-8.4089
▁K	-8.41379
▁air	-8.41383
▁L	-8.41449
▁further	-8.41578
▁point	-8.42066
▁West	-8.42158
▁G	-8.42283
▁half	-8.4274
▁2007	-8.43112
re	-8.43115
▁want	-8.43241
2	-8.43387
▁All	-8.43433
▁re	-8.43537
▁One	-8.43669
▁story	-8.43698
having	-8.4373
▁position	-8.43804
▁releas	-8.43823
▁become	-8.43899
▁player	-8.43964
▁version	-8.44097
▁different	-8.44507
▁turn	-8.44661
▁City	-8.44753
▁came	-8.45053
▁English	-8.45144
ers	-8.45884
went	-8.46027
ion	-8.46262
▁II	-8.4627
▁we	-8.46322
▁join	-8.46525
▁2012	-8.46907
▁total	-8.46929
▁H	-8.47171
▁history	-8.47205
▁London	-8.48061
▁increase	-8.48125
ton	-8.48236
▁River	-8.48248
▁King	-8.4888
▁every	-8.4905
▁establish	-8.49291
▁written	-8.49754
▁full	-8.50575
▁contain	-8.51317
▁land	-8.51986
▁track	-8.52146
▁given	-8.52397
▁strong	-8.52451
▁gave	-8.52885
▁University	-8.5298
▁close	-8.5324
▁wide	-8.53561
▁never	-8.53722
▁While	-8.53734
▁east	-8.53807
▁21	-8.54122
▁caus	-8.54221
▁control	-8.5434
▁service	-8.5457
▁act	-8.54745
▁man	-8.54898
moved	-8.54967
▁company	-8.55132
▁though	-8.55333
▁initial	-8.55603
▁week	-8.55639
▁published	-8.55876
▁town	-8.56185
▁building	-8.56242
ation	-8.5647
▁2006	-8.56801
▁lost	-8.57017
▁24	-8.57035
▁west	-8.574
▁performance	-8.57488
▁To	-8.57519
▁stated	-8.57586
▁particular	-8.57626
▁reported	-8.57677
▁young	-8.57805
▁common	-8.58083
▁According	-8.58373
▁list	-8.58398
▁enter	-8.58853
▁State	-8.58862
▁style	-8.59068
c	-8.59515
stead	-8.59547
▁W	-8.59578
▁militar	-8.59631
▁J	-8.59641
▁N	-8.59776
▁country	-8.59832
ism	-8.59968
▁pass	-8.60013
▁General	-8.60322
▁suggest	-8.6066
▁low	-8.60819
▁father	-8.61055
▁produc	-8.61059
ness	-8.61102
▁club	-8.61283
▁making	-8.61383
▁These	-8.61423
▁right	-8.61426
▁less	-8.61748
▁run	-8.61823
▁aircraft	-8.61826
g	-8.61833
▁himself	-8.61939
▁2013	-8.62039
▁recorded	-8.62205
▁Australia	-8.62222
▁real	-8.62961
▁fire	-8.63121
▁development	-8.63122
▁featur	-8.63132
▁William	-8.63209
released	-8.63371
▁head	-8.63655
▁claim	-8.64025
▁h	-8.64047
▁toward	-8.64312
▁forces	-8.6457
▁James	-8.64615
▁ships	-8.64791
▁tour	-8.65067
▁cover	-8.65099
less	-8.65201
▁class	-8.65318
▁With	-8.65844
u	-8.66258
▁range	-8.66306
▁ft	-8.66563
▁good	-8.66847
▁Army	-8.6692
▁22	-8.66945
▁Australian	-8.66983
▁design	-8.67276
▁Division	-8.67283
▁An	-8.67352
▁America	-8.67453
▁died	-8.68003
▁League	-8.68074
▁50	-8.68142
▁George	-8.6816
▁political	-8.68212
▁win	-8.68415
▁sign	-8.68451
▁present	-8.68587
▁live	-8.68672
▁command	-8.68835
▁children	-8.6896
▁developed	-8.69189
▁light	-8.69475
▁months	-8.69573
▁finish	-8.7005
▁official	-8.70281
▁Street	-8.70539
▁Park	-8.70595
▁away	-8.70865
▁eight	-8.71217
▁felt	-8.71339
most	-8.71902
either	-8.72073
▁characters	-8.72373
or	-8.72375
▁announced	-8.72379
▁national	-8.72534
▁sent	-8.72543
▁television	-8.72574
▁see	-8.7306
▁County	-8.7314
▁songs	-8.73223
▁level	-8.73403
▁seven	-8.73513
▁should	-8.7369
▁Japanese	-8.73768
▁2005	-8.73795
▁23	-8.73973
▁successful	-8.74043
▁get	-8.74165
▁age	-8.74215
▁route	-8.74239
▁station	-8.74356
▁eventual	-8.74357
▁various	-8.74682
▁Road	-8.74688
h	-8.74908
▁provid	-8.75023
▁damage	-8.75074
▁seen	-8.75076
▁success	-8.7516
▁East	-8.75603
▁ask	-8.75814
▁2014	-8.75995
▁need	-8.7602
▁son	-8.76102
▁battle	-8.76171
▁thought	-8.7619
▁race	-8.76773
▁campaign	-8.76826
▁writing	-8.77405
by	-8.77746
▁come	-8.77802
▁ten	-8.77945
▁creat	-8.7798
▁addition	-8.78143
▁Man	-8.7842
taken	-8.78484
▁road	-8.78515
▁post	-8.78538
▁award	-8.78794
▁member	-8.78945
▁killed	-8.79005
▁Air	-8.79016
land	-8.79157
▁debut	-8.792
▁fight	-8.79224
▁tropical	-8.79249
▁white	-8.7926
▁little	-8.79435
▁stage	-8.79607
▁significant	-8.79783
▁look	-8.79796
▁complete	-8.79889
▁areas	-8.80122
is	-8.80297
▁peak	-8.80411
▁players	-8.80491
▁40	-8.80492
ally	-8.80744
▁general	-8.80909
▁earlie	-8.81054
k	-8.81132
▁entire	-8.81212
▁involv	-8.81217
▁does	-8.81227
▁black	-8.81305
▁mm	-8.81337
▁!	-8.8138
▁28	-8.81687
▁too	-8.82127
b	-8.82134
▁women	-8.82511
▁miles	-8.82514
▁27	-8.82916
▁writer	-8.83057
▁mi	-8.8306
▁decided	-8.83261
▁face	-8.83468
▁night	-8.83509
▁able	-8.83536
hind	-8.83595
▁V	-8.8412
▁body	-8.84745
▁Royal	-8.84824
▁action	-8.84847
▁ground	-8.84855
▁House	-8.85
▁sold	-8.85033
▁provide	-8.85094
▁We	-8.85108
▁feet	-8.85111
▁David	-8.85143
▁features	-8.85347
▁together	-8.85406
▁law	-8.85558
ok	-8.85897
▁times	-8.85902
▁located	-8.85935
▁France	-8.86134
▁population	-8.86278
▁added	-8.86309
▁26	-8.86339
▁points	-8.86346
▁average	-8.86367
▁Michael	-8.86567
▁once	-8.86814
▁important	-8.87303
▁site	-8.8758
▁limit	-8.87673
▁go	-8.87768
▁front	-8.87779
▁interest	-8.87893
using	-8.87965
▁co	-8.88173
ian	-8.88574
▁non	-8.8864
▁completed	-8.88658
across	-8.88943
▁De	-8.89008
▁field	-8.89027
▁2004	-8.89031
▁project	-8.89096
▁attempt	-8.89102
▁popular	-8.89275
rather	-8.89352
▁saw	-8.8942
▁scene	-8.89549
▁leas	-8.8984
z	-8.89867
▁formed	-8.89925
▁consist	-8.89972
▁playing	-8.90063
▁coast	-8.9008
▁replac	-8.90182
▁believ	-8.90204
p	-8.90235
ry	-8.9047
▁Great	-8.91189
▁construction	-8.91283
▁rest	-8.91306
▁event	-8.91435
▁2015	-8.91456
▁San	-8.91714
▁case	-8.91827
▁Some	-8.91834
▁You	-8.92089
▁School	-8.92354
ley	-8.92426
▁subsequent	-8.9261
▁en	-8.9276
▁free	-8.92847
son	-8.92862
▁29	-8.93053
▁rock	-8.93127
ar	-8.93207
▁heavy	-8.93326
▁my	-8.93402
▁put	-8.93434
▁Henry	-8.93947
▁party	-8.93963
▁Robert	-8.94028
▁guns	-8.94074
▁move	-8.94091
▁upon	-8.94218
▁lack	-8.943
▁born	-8.94569
▁Battle	-8.94638
▁scored	-8.95042
▁2000	-8.95167
▁office	-8.95181
▁fourth	-8.95273
▁region	-8.95286
▁c	-8.95337
▁mid	-8.95389
▁view	-8.95411
▁Best	-8.95423
▁current	-8.95593
▁example	-8.9567
▁hit	-8.95731
▁rank	-8.95957
▁Other	-8.95958
▁200	-8.9619
▁brought	-8.9629
ough	-8.96494
▁Music	-8.96562
▁continue	-8.9657
mph	-8.96589
▁individual	-8.96733
▁extend	-8.96746
▁mother	-8.96958
▁cost	-8.9716
▁me	-8.97293
▁visit	-8.97302
▁base	-8.9733
▁chart	-8.97372
▁review	-8.97391
▁modern	-8.97405
▁special	-8.97528
ia	-8.97575
▁Washington	-8.97704
▁weeks	-8.9795
▁La	-8.98194
el	-8.98194
▁quick	-8.98292
▁noted	-8.98347
men	-8.98384
▁working	-8.98386
▁X	-8.98569
▁month	-8.98878
▁500	-8.9907
▁European	-8.99222
▁wife	-8.99402
▁critics	-8.99581
▁Europe	-8.99588
▁discover	-8.99673
▁worked	-8.99753
▁troops	-8.99767
spite	-9.00189
▁2003	-9.00333
▁prais	-9.00348
▁novel	-9.00391
▁Follow	-9.00479
3	-9.00495
▁crew	-9.00887
▁Her	-9.00901
▁Earl	-9.01251
▁island	-9.01295
▁agree	-9.01382
▁experience	-9.01391
▁President	-9.01438
▁generally	-9.01496
▁far	-9.01563
▁launch	-9.02014
▁Black	-9.02075
▁hurricane	-9.0215
▁Cup	-9.02245
▁Star	-9.02248
nd	-9.02405
▁sound	-9.02462
▁love	-9.02612
▁First	-9.02658
ous	-9.02744
▁director	-9.0279
▁Japan	-9.03239
▁works	-9.03334
▁victory	-9.03362
▁Charles	-9.03555
▁positive	-9.03575
▁Paul	-9.03594
▁runs	-9.03612
▁gain	-9.03727
▁cause	-9.0373
▁Two	-9.0391
▁soon	-9.04014
▁process	-9.04042
▁opening	-9.04235
▁highway	-9.04261
▁gun	-9.043
▁regard	-9.04824
▁accept	-9.04886
A	-9.05212
▁sea	-9.05315
▁Me	-9.05326
ish	-9.05423
▁events	-9.05559
▁Route	-9.05713
▁shot	-9.05774
▁usual	-9.05784
▁goal	-9.05878
▁saying	-9.05912
▁fail	-9.05934
ary	-9.06069
▁hours	-9.06325
▁regular	-9.0645
▁room	-9.06702
▁length	-9.06772
▁designed	-9.06812
▁fall	-9.06923
▁studio	-9.07073
▁hand	-9.07142
▁met	-9.07262
▁arriv	-9.07275
▁star	-9.07351
▁southern	-9.07375
▁possible	-9.07453
▁term	-9.07714
▁business	-9.07757
▁car	-9.07879
▁From	-9.08003
▁2001	-9.08079
▁International	-9.08088
▁court	-9.08101
▁available	-9.0817
▁White	-9.08412
▁arm	-9.08748
▁ever	-9.0878
▁31	-9.08815
▁training	-9.08827
▁human	-9.0894
without	-9.09165
served	-9.09167
▁figure	-9.09265
▁Thomas	-9.09265
▁Kingdom	-9.09268
▁Navy	-9.09465
▁appearance	-9.0953
▁minutes	-9.09611
▁decision	-9.09698
▁center	-9.10102
ie	-9.10226
▁lower	-9.10589
▁maintain	-9.10718
▁Hall	-9.10897
▁contract	-9.10914
▁cast	-9.10919
▁relationship	-9.11009
▁Game	-9.1133
▁northern	-9.11574
▁issue	-9.11739
▁travel	-9.11763
▁league	-9.11782
▁2002	-9.12029
x	-9.12242
▁Canada	-9.12269
▁difficult	-9.12412
side	-9.12493
▁Court	-9.12654
▁focus	-9.12746
▁personal	-9.12868
▁must	-9.12919
▁central	-9.12982
▁create	-9.13086
▁introduc	-9.13117
▁round	-9.13124
▁find	-9.13348
▁taking	-9.13495
▁nine	-9.13569
▁California	-9.1363
ought	-9.13639
▁immediate	-9.14014
▁voice	-9.14578
▁Award	-9.14687
▁clear	-9.14899
▁defeat	-9.15227
▁better	-9.15267
▁units	-9.15492
ve	-9.15526
▁social	-9.15638
▁Red	-9.15806
espite	-9.15948
▁church	-9.16101
f	-9.1611
▁Island	-9.16163
▁commercial	-9.16336
▁Union	-9.16354
▁size	-9.16399
C	-9.1643
▁art	-9.165
▁Christian	-9.16608
▁others	-9.16806
▁according	-9.1682
▁concern	-9.16878
▁score	-9.16921
▁hard	-9.16922
▁India	-9.16964
D	-9.17019
▁above	-9.1703
▁recording	-9.17064
▁outside	-9.17211
▁influence	-9.17398
ty	-9.17399
▁beginning	-9.17441
ist	-9.17454
▁Peter	-9.17655
▁Smith	-9.17697
▁told	-9.17699
▁relative	-9.17723
▁additional	-9.17758
▁break	-9.17773
▁winds	-9.17898
▁pre	-9.18035
▁1990	-9.18092
▁going	-9.18249
▁surface	-9.18343
▁us	-9.18659
▁ended	-9.18758
▁Company	-9.18763
▁section	-9.18788
▁response	-9.18958
▁required	-9.19178
▁give	-9.19328
▁space	-9.19477
▁interview	-9.1958
▁Indian	-9.19593
▁College	-9.19678
▁pressure	-9.19755
▁rate	-9.19775
▁evidence	-9.19851
ch	-9.19862
▁itself	-9.19881
▁spen	-9.19945
▁sometime	-9.19959
▁brother	-9.20101
▁elements	-9.20306
▁appoint	-9.20321
▁account	-9.20323
▁Germany	-9.20624
▁Act	-9.20681
▁village	-9.20833
▁anti	-9.20931
▁Force	-9.20967
▁develop	-9.21024
▁person	-9.21089
▁High	-9.21099
▁prevent	-9.21137
▁idea	-9.21151
ta	-9.21162
▁musical	-9.2154
▁Sea	-9.21894
rd	-9.22051
▁international	-9.22106
▁poor	-9.22121
▁UK	-9.22207
▁approach	-9.2242
▁election	-9.22484
▁Western	-9.22713
▁future	-9.22729
▁speed	-9.22754
▁intend	-9.22778
▁Hill	-9.22783
▁keep	-9.22801
▁Richard	-9.22986
▁recent	-9.23051
▁Times	-9.23284
▁serve	-9.23447
▁plan	-9.2345
▁reviews	-9.2355
▁host	-9.23605
▁Church	-9.23618
▁rule	-9.23735
▁program	-9.23788
▁female	-9.23888
▁football	-9.24007
▁whom	-9.24057
▁chose	-9.24139
▁NY	-9.24206
▁cut	-9.24353
▁police	-9.24416
▁magazine	-9.24501
▁Los	-9.24563
▁That	-9.24634
▁suffer	-9.24635
▁king	-9.24724
▁attend	-9.24761
▁fact	-9.2485
▁material	-9.24889
▁Championship	-9.25108
▁alread	-9.25352
▁loss	-9.25398
army	-9.25518
▁60	-9.25613
ra	-9.25783
▁1970	-9.25867
▁Most	-9.25874
▁report	-9.25881
▁bridge	-9.25896
▁carri	-9.26145
▁structure	-9.26234
▁cross	-9.26292
▁1980	-9.2634
▁western	-9.26349
▁meeting	-9.26373
▁media	-9.2646
▁study	-9.26492
▁Britain	-9.26585
▁protect	-9.26718
▁president	-9.26942
▁money	-9.2708
▁bring	-9.27402
▁especial	-9.27486
ne	-9.27517
▁Up	-9.27541
▁summer	-9.27608
▁Awards	-9.27651
▁fleet	-9.27891
▁Virginia	-9.27902
▁red	-9.27983
▁Later	-9.28013
▁past	-9.28117
▁question	-9.28141
▁might	-9.28554
▁food	-9.28568
▁produce	-9.28622
▁community	-9.28808
▁park	-9.28823
▁grow	-9.29041
▁radio	-9.29165
▁audience	-9.29169
▁select	-9.29216
▁1999	-9.29235
▁eastern	-9.29374
▁estimat	-9.29381
▁propos	-9.29699
▁actual	-9.29731
▁conduct	-9.29733
▁deal	-9.29734
▁My	-9.29755
am	-9.29911
▁rais	-9.29926
ment	-9.29971
▁type	-9.29996
▁Final	-9.29997
▁date	-9.30046
▁market	-9.30149
▁river	-9.30223
▁research	-9.30284
▁unit	-9.30285
▁feature	-9.30383
▁percent	-9.30477
▁exist	-9.3065
▁specific	-9.3078
▁earn	-9.30953
▁latter	-9.31
▁Bay	-9.3103
▁leav	-9.31118
▁Jackson	-9.31353
▁winning	-9.31481
▁deep	-9.31517
▁Soviet	-9.31724
▁groups	-9.31762
na	-9.31789
ine	-9.31855
▁Z	-9.31944
▁division	-9.31958
▁defeated	-9.32057
▁If	-9.32181
▁Roman	-9.322
▁Brown	-9.32223
▁referr	-9.32238
▁Rock	-9.32245
▁practice	-9.32277
▁Grand	-9.3251
▁Edward	-9.32548
▁amount	-9.32708
▁staff	-9.32789
▁daughter	-9.32816
▁lines	-9.33003
▁brief	-9.33042
▁stay	-9.33062
head	-9.33081
▁students	-9.33274
▁states	-9.33361
▁Club	-9.33459
▁seem	-9.3363
▁Spanish	-9.33635
▁movement	-9.33643
day	-9.33762
▁God	-9.3379
ville	-9.34176
▁Association	-9.34281
▁destroyed	-9.34431
▁overall	-9.34698
da	-9.34822
▁Party	-9.34837
▁1960	-9.34891
▁effects	-9.35042
▁course	-9.35064
▁private	-9.35175
age	-9.35285
▁our	-9.3531
▁35	-9.35452
▁certain	-9.35462
▁f	-9.355
▁language	-9.35509
▁broadcast	-9.35795
▁professional	-9.35798
▁Chicago	-9.3582
▁running	-9.35839
▁Love	-9.36133
▁Second	-9.36151
▁elect	-9.36216
ter	-9.363
▁effect	-9.36577
▁Lake	-9.36581
▁affect	-9.36704
▁married	-9.36711
▁Chinese	-9.36858
▁1998	-9.3686
▁Council	-9.36993
et	-9.37044
▁natural	-9.37109
▁producer	-9.37116
ive	-9.37117
▁tell	-9.37201
▁self	-9.37222
▁Many	-9.37266
▁know	-9.37408
ance	-9.37674
▁forward	-9.37706
▁display	-9.37749
▁traditional	-9.37795
▁Russian	-9.37898
▁Dr	-9.37937
▁Day	-9.38009
▁scenes	-9.38064
1	-9.38194
▁critical	-9.3844
▁Mary	-9.38487
▁trial	-9.38833
▁planned	-9.38949
▁increasing	-9.39075
▁longer	-9.39212
▁effective	-9.39244
▁annual	-9.39245
▁active	-9.39332
▁Johnson	-9.39337
▁compared	-9.39414
▁80	-9.39429
▁parts	-9.39536
▁living	-9.39545
▁Pacific	-9.39596
▁higher	-9.39598
▁approximately	-9.39607
▁captured	-9.39636
▁fifth	-9.39729
▁themselves	-9.3982
▁child	-9.39851
▁commission	-9.39872
▁singer	-9.39874
▁operat	-9.39906
▁leader	-9.39926
▁done	-9.39956
▁History	-9.39979
▁Le	-9.40035
▁related	-9.40055
▁offer	-9.40137
co	-9.4036
ro	-9.40386
▁pair	-9.40431
▁Billboard	-9.40506
▁centre	-9.4061
▁rights	-9.40621
▁Bill	-9.40621
▁friend	-9.40632
▁thus	-9.40778
▁test	-9.40969
▁Canadian	-9.40987
▁fans	-9.40996
▁manager	-9.41091
▁woman	-9.41197
▁probab	-9.41449
▁coach	-9.41475
time	-9.41493
▁pay	-9.41601
▁whether	-9.4164
▁Re	-9.41671
▁dark	-9.41722
ford	-9.41842
▁Mark	-9.41893
▁learn	-9.42105
▁Film	-9.42223
▁Lord	-9.42225
▁prior	-9.42249
▁300	-9.42295
▁gold	-9.42354
▁leave	-9.42358
▁Since	-9.42415
▁copies	-9.4243
▁typical	-9.42543
▁Squadron	-9.42554
▁fast	-9.42571
▁Atlantic	-9.42708
▁1997	-9.4271
▁location	-9.42769
▁tri	-9.42786
▁subject	-9.42833
▁soldiers	-9.42883
▁complex	-9.42915
▁lyrics	-9.43053
▁countries	-9.43228
▁separate	-9.43233
▁Queen	-9.43285
▁China	-9.43311
▁films	-9.43409
▁model	-9.43412
▁supported	-9.43414
▁shows	-9.43523
▁Both	-9.43557
▁Florida	-9.43601
▁cm	-9.43664
▁watch	-9.43779
▁believe	-9.43802
▁operations	-9.43998
▁Highway	-9.44068
▁demand	-9.44103
▁pilot	-9.44176
▁reduc	-9.44187
▁trade	-9.44315
▁request	-9.44396
▁fell	-9.44447
nother	-9.44516
▁via	-9.4465
▁think	-9.4468
▁Martin	-9.4469
te	-9.44704
▁target	-9.44829
▁minute	-9.44874
▁inspir	-9.44952
▁stop	-9.4502
▁mixed	-9.45051
▁Italian	-9.45072
▁Texas	-9.45199
▁expand	-9.45209
▁Jack	-9.45359
▁So	-9.4538
ham	-9.45413
▁portion	-9.45531
▁health	-9.45551
▁historian	-9.45634
▁stars	-9.45675
▁removed	-9.45739
▁always	-9.45758
▁network	-9.45901
▁status	-9.45922
▁-	-9.46018
▁flight	-9.46169
il	-9.46217
▁Center	-9.46294
▁ran	-9.464
▁compos	-9.46523
▁45	-9.4673
▁advance	-9.46795
▁Green	-9.46937
▁wind	-9.47068
▁something	-9.47106
▁press	-9.47227
▁carry	-9.47383
▁Africa	-9.474
▁officers	-9.47426
▁avoid	-9.47503
▁majority	-9.47735
▁refus	-9.47832
▁tracks	-9.47939
▁issu	-9.48033
▁got	-9.48068
w	-9.48294
▁becom	-9.48357
▁Year	-9.48438
▁tons	-9.48457
▁hour	-9.4846
▁problems	-9.48477
▁drive	-9.48901
▁script	-9.48955
▁share	-9.48991
▁offered	-9.48998
▁nature	-9.49132
▁Earth	-9.49137
▁El	-9.49235
▁frequent	-9.49242
▁Don	-9.49304
▁access	-9.4948
▁potential	-9.49629
▁Empire	-9.49706
▁teams	-9.49726
▁plans	-9.49736
▁Sir	-9.4985
▁metal	-9.49947
▁numero	-9.49976
▁culture	-9.50026
▁respectively	-9.50084
▁Central	-9.5015
▁t	-9.50158
▁associat	-9.50311
▁1995	-9.50333
▁buildings	-9.50337
▁revealed	-9.5044
▁impact	-9.50441
▁ball	-9.50463
▁70	-9.50554
▁Angeles	-9.50559
▁grant	-9.50589
▁port	-9.50602
▁III	-9.50637
▁territor	-9.50771
ri	-9.50835
▁yet	-9.50992
▁episodes	-9.50997
▁color	-9.51159
to	-9.51218
▁guitar	-9.5135
▁minor	-9.51356
▁moving	-9.51597
▁terms	-9.51686
▁Test	-9.5169
▁occurred	-9.51701
▁board	-9.51892
▁occur	-9.52124
▁upper	-9.52181
▁shown	-9.52208
▁Group	-9.52209
ll	-9.52283
▁treat	-9.52311
▁transport	-9.52372
▁information	-9.52391
▁2016	-9.52431
▁1996	-9.52613
▁But	-9.52657
▁slight	-9.5266
▁1950	-9.52747
▁depression	-9.52782
▁Greek	-9.52906
▁TV	-9.52988
▁whole	-9.53124
▁slow	-9.5315
▁injur	-9.53336
ey	-9.5335
▁operation	-9.53371
▁Go	-9.5341
▁legal	-9.53463
▁defend	-9.53488
▁castle	-9.53557
▁Tour	-9.53565
▁sister	-9.53577
▁goals	-9.53714
▁conditions	-9.53721
▁male	-9.538
▁direction	-9.53841
▁Minister	-9.53859
wood	-9.53947
▁severe	-9.53977
▁key	-9.54068
▁services	-9.54077
▁letter	-9.54087
▁officer	-9.54214
▁word	-9.54301
▁independent	-9.54322
▁border	-9.54368
▁industry	-9.54485
▁1994	-9.54511
▁Super	-9.54514
▁session	-9.54554
▁feel	-9.54625
▁Big	-9.54655
▁situation	-9.54681
▁double	-9.54686
▁pop	-9.54697
▁artist	-9.5473
▁Corps	-9.54775
▁commander	-9.5495
▁heavi	-9.55022
▁primar	-9.55046
▁00	-9.55071
▁attention	-9.55096
▁assigned	-9.55154
▁Team	-9.55345
▁Old	-9.55365
▁standard	-9.55393
▁economic	-9.55394
é	-9.55564
▁Sever	-9.5561
▁commented	-9.55614
▁DVD	-9.55643
▁attempted	-9.55746
▁yards	-9.55788
▁expected	-9.55905
▁moment	-9.55914
▁Co	-9.56009
▁education	-9.56034
▁capital	-9.56192
▁damag	-9.56424
▁dance	-9.56629
B	-9.56668
▁sales	-9.56689
▁competition	-9.56699
▁Stone	-9.56803
▁Michigan	-9.57004
▁Tom	-9.57201
4	-9.57214
▁Be	-9.57218
▁mention	-9.57262
▁closed	-9.57428
▁retain	-9.5747
▁below	-9.57506
▁author	-9.57526
▁issues	-9.57527
▁90	-9.57538
▁horse	-9.57568
▁1940	-9.57569
▁75	-9.57607
▁Wales	-9.57774
▁fish	-9.57877
la	-9.57895
▁distance	-9.58104
▁concept	-9.58222
▁dead	-9.58238
▁giving	-9.5824
▁declared	-9.58371
▁Time	-9.58374
▁hop	-9.58379
id	-9.58426
▁marriage	-9.58457
one	-9.5847
▁Congress	-9.5852
▁African	-9.58524
▁middle	-9.58531
▁Hot	-9.5855
▁religious	-9.58578
▁resident	-9.58697
▁mass	-9.58723
▁ability	-9.58912
▁rapid	-9.59334
▁Major	-9.59336
▁draft	-9.59349
▁normal	-9.5945
▁captain	-9.59493
▁Scott	-9.59542
▁ultimate	-9.5957
▁matches	-9.59614
▁plot	-9.59675
▁nation	-9.59676
▁Frank	-9.59738
▁decade	-9.59871
▁heart	-9.59972
▁serious	-9.60005
▁describe	-9.60073
▁Sun	-9.60078
▁friends	-9.60153
▁couple	-9.60299
▁district	-9.60436
▁appears	-9.60497
▁plant	-9.60553
▁1992	-9.60563
▁financial	-9.60733
ma	-9.60836
▁energy	-9.60882
▁takes	-9.60935
▁conflict	-9.60983
▁edition	-9.61009
the	-9.6116
▁adopt	-9.61344
▁Fox	-9.61598
▁Over	-9.61694
▁contact	-9.6184
▁And	-9.6198
field	-9.62051
ner	-9.62257
▁p	-9.6226
▁constructed	-9.62274
▁movie	-9.62328
▁vocals	-9.62446
▁stone	-9.62634
▁temperature	-9.62657
▁32	-9.62682
ling	-9.6282
▁attacks	-9.62838
▁chief	-9.62847
▁effort	-9.63015
it	-9.63027
▁Mexico	-9.63049
▁call	-9.63071
▁kind	-9.6308
▁Like	-9.63182
▁source	-9.63229
▁college	-9.63361
▁promot	-9.63651
▁screen	-9.63673
▁1930	-9.63688
▁defense	-9.63735
com	-9.63788
▁Bridge	-9.6389
▁transferr	-9.63964
▁physical	-9.64147
▁combat	-9.64228
▁theme	-9.64233
▁extra	-9.64283
▁collect	-9.64351
▁argu	-9.64365
▁Madonna	-9.64388
▁twenty	-9.64452
▁cyclone	-9.64575
▁1993	-9.6461
▁Chris	-9.6464
▁stating	-9.64711
▁1991	-9.64738
▁oil	-9.64806
▁Service	-9.64866
▁Jones	-9.64897
▁fund	-9.64935
▁Scotland	-9.652
▁engine	-9.65362
▁hold	-9.65502
▁concert	-9.65516
▁yard	-9.65557
▁Department	-9.65667
▁add	-9.65675
▁escape	-9.65915
▁science	-9.65928
▁Hurricane	-9.66057
▁means	-9.66081
▁receive	-9.6618
▁dropp	-9.66193
▁Zealand	-9.66212
▁morning	-9.66227
▁executive	-9.66267
▁represent	-9.66327
▁Their	-9.66341
▁makes	-9.66362
▁build	-9.66477
▁charge	-9.66515
▁Three	-9.66529
▁wall	-9.66599
▁responsibl	-9.66739
▁foot	-9.66748
▁inside	-9.66918
▁performances	-9.66943
▁mount	-9.66959
▁Fort	-9.67042
▁managed	-9.67073
▁Prince	-9.67198
▁wear	-9.67211
▁Infantry	-9.67266
▁Creek	-9.67332
▁ending	-9.67362
kept	-9.67372
▁400	-9.67499
▁Catholic	-9.67663
▁Simpson	-9.67663
▁mission	-9.67674
▁notes	-9.6782
▁variety	-9.68056
▁Life	-9.68122
▁depict	-9.68217
▁era	-9.68368
▁arrest	-9.68489
▁Committee	-9.68796
▁Lee	-9.68861
▁presented	-9.68882
▁square	-9.68958
▁speak	-9.69101
▁meant	-9.69151
▁search	-9.6935
▁Records	-9.69446
▁divid	-9.69511
▁bad	-9.69575
▁oppos	-9.69584
▁b	-9.69631
▁tower	-9.69713
▁Battalion	-9.69726
▁marked	-9.69838
▁efforts	-9.69841
▁formation	-9.69998
▁wing	-9.70085
▁train	-9.70176
▁Latin	-9.70178
▁box	-9.70202
▁hundred	-9.70229
▁portray	-9.70439
▁piece	-9.70665
▁begins	-9.70685
▁presence	-9.70706
ka	-9.70795
▁Society	-9.70843
▁Post	-9.70879
▁engage	-9.70903
▁camp	-9.70955
▁sex	-9.7097
▁1942	-9.7097
ier	-9.70972
ant	-9.70973
▁books	-9.71132
▁content	-9.71132
▁collection	-9.7114
▁federal	-9.71172
▁scale	-9.71217
▁Southern	-9.71324
▁write	-9.71524
▁Saint	-9.71551
▁speech	-9.71613
▁Line	-9.71773
▁enjoy	-9.7179
▁Stephen	-9.71807
▁levels	-9.71848
▁primari	-9.71923
▁viewers	-9.71928
▁seat	-9.71968
▁v	-9.71969
▁kill	-9.71971
▁Live	-9.71998
▁metres	-9.72003
▁forest	-9.72087
▁extreme	-9.72222
▁Oxford	-9.72222
▁winter	-9.72225
▁words	-9.72248
▁Louis	-9.72259
▁blood	-9.72354
▁Captain	-9.72361
▁sell	-9.72402
▁enemy	-9.72458
▁traffic	-9.72494
▁storie	-9.72523
▁value	-9.72579
ate	-9.7274
▁records	-9.72754
▁actor	-9.72784
▁read	-9.72993
▁Republican	-9.72999
▁multiple	-9.73089
line	-9.73102
▁Chief	-9.73132
▁link	-9.7319
▁Boston	-9.73218
▁concluded	-9.73261
▁Mr	-9.73269
▁scoring	-9.73324
▁property	-9.73399
▁Harrison	-9.73451
▁royal	-9.73476
▁Manchester	-9.73565
▁risk	-9.7362
▁meaning	-9.73638
▁inch	-9.73649
ities	-9.73659
▁prominent	-9.73718
▁setting	-9.73725
ecause	-9.73839
▁rating	-9.73915
▁Before	-9.73972
▁weaken	-9.74036
▁extensive	-9.74071
▁job	-9.74099
▁Brigade	-9.741
▁positions	-9.74223
quality	-9.7437
▁cases	-9.74435
▁Vietnam	-9.74496
board	-9.74604
▁observed	-9.74611
▁Long	-9.74675
ten	-9.7474
▁Regiment	-9.7488
▁1944	-9.749
▁tournament	-9.74994
▁Under	-9.75
▁Little	-9.75066
▁strength	-9.75094
▁rough	-9.75103
▁things	-9.75154
truck	-9.75172
▁reception	-9.75212
▁quarter	-9.75299
▁vote	-9.75358
os	-9.75368
▁paid	-9.75382
▁Joseph	-9.75548
▁invasion	-9.75581
▁sense	-9.75638
▁Cross	-9.7565
▁companies	-9.75811
ur	-9.75932
▁convert	-9.75999
▁meet	-9.76019
▁onto	-9.76071
▁historical	-9.76146
▁bill	-9.76176
town	-9.76276
▁33	-9.76303
▁Series	-9.76474
▁animals	-9.76494
▁document	-9.76507
▁blue	-9.76539
▁say	-9.76571
▁powerful	-9.76625
▁broke	-9.76691
▁parents	-9.76713
▁candidate	-9.76926
▁BBC	-9.77021
▁reject	-9.77047
▁identifi	-9.77176
▁participat	-9.77242
▁reflect	-9.77304
▁block	-9.77323
▁More	-9.77409
▁maximum	-9.77421
▁innings	-9.77486
▁criticiz	-9.77576
▁Academy	-9.77846
den	-9.77857
▁1920	-9.78
▁1945	-9.78014
▁schools	-9.78032
▁policy	-9.7804
▁societ	-9.78052
ga	-9.78107
▁Middle	-9.7812
▁your	-9.78145
▁Entertainment	-9.78303
▁Young	-9.78364
▁Museum	-9.78378
▁Paris	-9.7838
▁lot	-9.78402
▁1941	-9.78515
▁designated	-9.78575
▁i	-9.78602
▁cit	-9.78664
ha	-9.78679
at	-9.78681
▁activity	-9.7899
▁hospital	-9.7902
▁opportunit	-9.79028
▁aid	-9.79101
▁Italy	-9.79137
▁discuss	-9.79201
▁combined	-9.79215
▁thousand	-9.79222
▁Home	-9.79248
▁capture	-9.79309
▁label	-9.79477
▁Jim	-9.79499
▁fill	-9.79512
▁battleship	-9.79788
no	-9.79897
▁contrast	-9.79916
▁background	-9.79932
▁Williams	-9.79951
▁reference	-9.80065
▁Avenue	-9.80119
▁calling	-9.80169
▁foreign	-9.80308
▁Joe	-9.80503
▁nominated	-9.8051
▁naval	-9.8052
▁weather	-9.80731
▁succeed	-9.80767
▁talk	-9.80771
▁Ben	-9.80901
ul	-9.8096
▁treatment	-9.80961
▁attempts	-9.81044
▁Ireland	-9.81085
▁husband	-9.81115
▁names	-9.8112
▁ice	-9.81121
ium	-9.81165
▁flow	-9.81236
▁incident	-9.81294
ent	-9.81457
▁Games	-9.81458
▁confirmed	-9.81555
▁numbers	-9.81589
▁push	-9.81698
▁raid	-9.81728
▁advanc	-9.81809
▁Show	-9.81881
▁1989	-9.81913
▁Victoria	-9.8205
▁image	-9.82081
ak	-9.82089
▁Republic	-9.82151
▁native	-9.82187
▁explained	-9.82337
▁surrounding	-9.82338
▁forms	-9.82341
▁Sam	-9.82394
go	-9.82453
▁begin	-9.8248
▁1943	-9.82493
▁floor	-9.82551
▁Parliament	-9.82581
▁sixth	-9.82605
▁reason	-9.82649
▁weight	-9.82674
ke	-9.8273
▁county	-9.82813
▁student	-9.8282
▁rise	-9.82836
▁don	-9.8296
▁36	-9.83029
▁sexual	-9.83107
▁Se	-9.83133
v	-9.83138
▁150	-9.83147
▁ceremon	-9.8315
▁37	-9.83286
▁Port	-9.83355
▁website	-9.83356
ard	-9.83358
▁seek	-9.83427
▁soundtrack	-9.83542
▁Tropical	-9.83544
▁sources	-9.83557
▁secret	-9.83586
▁coming	-9.83625
▁cities	-9.83746
▁Valley	-9.83761
▁attract	-9.83875
ory	-9.83944
▁true	-9.84004
▁organization	-9.84041
▁Art	-9.8405
▁stand	-9.8405
▁expressed	-9.84092
▁owned	-9.84175
▁matter	-9.84254
▁passing	-9.84259
▁agreement	-9.84406
▁sides	-9.84439
▁Alli	-9.84504
▁Dutch	-9.84511
5	-9.84604
▁visual	-9.8463
▁formal	-9.84702
▁artists	-9.84785
cy	-9.84806
▁kg	-9.84865
▁reign	-9.84872
ney	-9.84881
▁becomes	-9.84895
▁theory	-9.8499
▁ring	-9.85032
▁artillery	-9.85046
▁armor	-9.85122
▁count	-9.85206
▁save	-9.8528
▁Through	-9.85362
▁Football	-9.85362
▁actions	-9.8548
ab	-9.85672
ti	-9.8568
▁Carolina	-9.85696
▁edge	-9.85723
▁supplie	-9.85751
▁38	-9.85798
▁Har	-9.85845
▁improv	-9.85888
be	-9.85921
▁failure	-9.85971
▁price	-9.8602
▁appeal	-9.86059
▁negative	-9.86083
▁Governor	-9.86173
▁alone	-9.8619
▁says	-9.86192
▁apparent	-9.86284
▁coin	-9.86312
▁senior	-9.86316
▁detail	-9.86343
▁contribut	-9.86372
▁studies	-9.8638
▁Van	-9.86474
ca	-9.8654
▁pick	-9.86572
▁What	-9.8659
▁Ra	-9.86704
▁Fleet	-9.86806
▁kilometre	-9.86861
▁weapons	-9.8703
▁equipment	-9.87055
▁achiev	-9.87056
▁assist	-9.87214
▁Korean	-9.87216
▁birth	-9.8724
▁beat	-9.87383
▁green	-9.87437
ler	-9.8747
▁49	-9.87515
▁spread	-9.87559
ko	-9.8758
▁machine	-9.87586
▁34	-9.87696
▁injury	-9.87781
▁represented	-9.87821
▁Though	-9.8783
▁reviewer	-9.87929
▁guest	-9.8793
▁growth	-9.8801
▁contemporary	-9.88058
▁lane	-9.88094
▁Bond	-9.88126
▁Duke	-9.88193
▁Homer	-9.88206
▁medical	-9.88225
▁except	-9.8836
▁destroy	-9.88394
aught	-9.884
▁fuel	-9.88411
▁fired	-9.88412
▁officials	-9.88471
▁care	-9.88489
▁Northern	-9.88531
▁thick	-9.88563
▁laid	-9.88645
▁championship	-9.88766
▁Castle	-9.88817
▁Prime	-9.88834
▁Government	-9.88842
▁capacit	-9.88844
lived	-9.89097
ol	-9.89178
▁big	-9.89199
▁Wood	-9.89264
▁governor	-9.89379
▁District	-9.894
▁problem	-9.89491
▁offensive	-9.89552
▁activities	-9.89639
j	-9.89673
▁Storm	-9.89722
▁la	-9.89841
▁Top	-9.89855
▁spring	-9.89911
ge	-9.90098
▁prisoner	-9.90172
▁Do	-9.90262
▁Operation	-9.90271
ki	-9.90372
▁degree	-9.90434
▁Admiral	-9.9045
▁Scottish	-9.90543
▁killing	-9.9062
▁1987	-9.90632
▁settlement	-9.90673
▁aspect	-9.90694
▁gas	-9.9071
▁worldwide	-9.90764
▁appearances	-9.90809
▁connect	-9.90865
ir	-9.90891
ina	-9.909
▁1988	-9.90918
▁Short	-9.91013
▁interchange	-9.91059
▁boat	-9.91098
▁Fantasy	-9.91163
▁sequence	-9.91212
▁Blue	-9.91265
▁railway	-9.91268
▁proposal	-9.9133
▁Background	-9.91348
ship	-9.91426
ese	-9.91481
grew	-9.91506
▁trying	-9.91545
wise	-9.91578
▁sail	-9.91606
▁bar	-9.91673
▁Bar	-9.9168
▁rainfall	-9.91685
▁organiz	-9.91688
▁famous	-9.91716
V	-9.91737
▁doing	-9.91835
do	-9.91865
▁universit	-9.9196
▁composition	-9.92018
▁eye	-9.92063
▁tail	-9.92192
▁twice	-9.92225
▁600	-9.9226
▁Polish	-9.92312
▁supply	-9.92344
ad	-9.92452
▁plays	-9.92559
▁newspaper	-9.92607
▁pieces	-9.92627
▁Senate	-9.92687
▁Chart	-9.92761
▁acre	-9.92819
▁spend	-9.92835
▁consecutive	-9.9294
▁billion	-9.92966
▁Christmas	-9.92975
▁drama	-9.92997
▁Eastern	-9.93002
▁therefore	-9.93005
▁Festival	-9.93111
▁opinion	-9.93139
▁Mike	-9.93174
▁expedition	-9.93197
▁progress	-9.9331
▁multi	-9.9332
▁Studios	-9.93342
▁estate	-9.93421
▁trees	-9.93431
▁Ocean	-9.93481
losing	-9.93582
▁birds	-9.93683
▁Wilson	-9.93697
▁Di	-9.93716
▁herself	-9.93755
▁Pennsylvania	-9.93781
▁Tech	-9.93803
▁expansion	-9.93953
▁fine	-9.93992
▁leaders	-9.94061
▁Taylor	-9.94093
hile	-9.94094
▁squadron	-9.94114
well	-9.94129
coming	-9.94203
▁simply	-9.94229
▁Light	-9.94283
▁brown	-9.94466
▁condition	-9.94519
▁assault	-9.94631
▁Mount	-9.9475
▁storyline	-9.9476
▁1986	-9.94809
▁crime	-9.94863
▁55	-9.94923
▁leg	-9.94928
▁Alexander	-9.94942
▁nothing	-9.94959
▁wounded	-9.94982
▁authority	-9.95056
▁passe	-9.9506
▁BC	-9.95087
▁g	-9.95112
▁Due	-9.9513
▁firm	-9.95154
▁camera	-9.9518
▁serving	-9.95215
▁Each	-9.95305
▁Song	-9.95391
▁encounter	-9.9546
▁unknown	-9.95488
ov	-9.95498
▁silver	-9.95501
▁Of	-9.95565
▁deck	-9.95581
mo	-9.95654
▁prov	-9.95673
▁simple	-9.95693
▁northeast	-9.95927
▁Will	-9.96012
▁opposition	-9.96045
▁versions	-9.96084
▁workers	-9.96089
▁standing	-9.96105
▁environment	-9.96112
▁favor	-9.96113
ni	-9.9613
▁fiction	-9.96145
▁disease	-9.96168
▁Civil	-9.96221
▁Gold	-9.96255
water	-9.96375
▁council	-9.96503
▁Men	-9.96511
▁mean	-9.96563
berg	-9.96621
▁fellow	-9.96628
▁mind	-9.96631
▁element	-9.96668
▁throw	-9.9668
▁tax	-9.96681
▁adapt	-9.96816
▁heard	-9.96844
more	-9.9685
▁Or	-9.96888
▁paper	-9.96897
▁threat	-9.96903
▁shape	-9.96911
▁tree	-9.96943
▁flood	-9.96987
▁basis	-9.97031
▁civil	-9.97068
▁Reception	-9.97109
▁48	-9.9714
▁walk	-9.9716
▁budget	-9.97196
▁vocal	-9.97214
▁Production	-9.97232
▁flag	-9.97255
▁murder	-9.97291
▁honor	-9.97317
▁walls	-9.9736
▁shar	-9.97403
▁suit	-9.97421
▁purpose	-9.9743
ot	-9.97436
▁starr	-9.97468
▁Night	-9.9747
▁Irish	-9.97547
▁Further	-9.97554
▁Institute	-9.97653
▁sustain	-9.97694
▁crossing	-9.97765
▁fear	-9.97772
▁shift	-9.97779
▁Doctor	-9.97895
▁leaves	-9.98075
▁pull	-9.98079
▁purchas	-9.98141
M	-9.98179
▁message	-9.98183
▁Harry	-9.98233
li	-9.98237
▁administration	-9.98344
▁Spain	-9.98374
▁task	-9.98396
▁Jersey	-9.98398
▁w	-9.98483
▁broad	-9.98516
▁abandoned	-9.98524
way	-9.98554
▁64	-9.98555
▁flying	-9.98611
▁criticism	-9.98731
H	-9.98735
▁reports	-9.98752
▁Li	-9.9877
yond	-9.9877
▁Not	-9.988
▁respect	-9.98818
▁sub	-9.98829
▁protest	-9.98996
▁Coast	-9.99006
▁northwest	-9.99047
▁rival	-9.99144
▁trip	-9.99212
▁convince	-9.99249
▁systems	-9.99305
▁girl	-9.99307
▁possibl	-9.99308
▁influenc	-9.99311
▁unique	-9.99351
▁carrier	-9.9944
▁Bob	-9.99617
▁1939	-9.99618
▁creation	-9.99658
▁choice	-9.99848
▁Four	-9.99883
▁bodies	-9.99954
▁narrow	-9.99962
▁hands	-10.0008
▁crash	-10.001
▁Ka	-10.0013
▁recogniz	-10.0025
▁retreat	-10.0031
▁split	-10.0032
▁Elizabeth	-10.0034
▁Sa	-10.0036
ful	-10.0046
▁province	-10.0048
▁committee	-10.0053
▁digital	-10.0063
▁animal	-10.0064
▁function	-10.0073
▁Arthur	-10.0073
▁Field	-10.0077
▁phase	-10.0077
▁Commission	-10.008
house	-10.0081
▁65	-10.0095
▁advantage	-10.0096
▁here	-10.0105
▁actors	-10.0106
▁article	-10.0109
▁torpedo	-10.0111
▁retired	-10.0112
▁cultural	-10.0112
▁fan	-10.0115
▁warning	-10.0115
▁inform	-10.0117
▁data	-10.0117
▁draw	-10.012
▁creating	-10.0121
▁results	-10.0125
▁canno	-10.014
im	-10.0145
▁47	-10.0147
▁1985	-10.015
▁1968	-10.0157
▁selection	-10.0161
▁stations	-10.0161
▁Board	-10.0172
▁producers	-10.0177
▁necessary	-10.0179
▁personnel	-10.0187
▁Meanw	-10.0189
▁text	-10.0189
▁dedicat	-10.0194
▁horses	-10.0195
ial	-10.0195
▁Ten	-10.02
▁twelve	-10.0205
▁wave	-10.021
▁bit	-10.0225
▁gross	-10.0232
▁address	-10.0234
▁leadership	-10.0234
▁surrender	-10.0237
▁Also	-10.0238
▁rain	-10.0245
▁accompani	-10.0251
▁arms	-10.0257
▁Ohio	-10.0262
▁repeated	-10.0263
ite	-10.0267
▁management	-10.027
▁threaten	-10.0271
▁Point	-10.0277
mi	-10.028
▁infantry	-10.0283
▁categor	-10.0283
▁counter	-10.0289
▁Walter	-10.03
▁Order	-10.0305
▁conference	-10.0309
▁parallel	-10.0312
▁wait	-10.0316
▁Secretary	-10.0317
▁rear	-10.033
▁Su	-10.033
▁height	-10.0336
▁Y	-10.0338
▁39	-10.0338
▁claims	-10.0341
▁peace	-10.0341
▁System	-10.035
▁Town	-10.0356
▁ancient	-10.0356
▁broken	-10.036
▁1984	-10.037
▁comed	-10.0371
ell	-10.0374
▁landing	-10.0381
▁reduce	-10.0389
▁composer	-10.039
▁Georgia	-10.0391
▁permanent	-10.0392
▁Philadelphia	-10.04
ya	-10.0403
▁motion	-10.0409
▁battalion	-10.0413
▁Islands	-10.0426
▁mile	-10.0426
▁franchise	-10.0427
▁holding	-10.0428
▁reveal	-10.0429
▁perfect	-10.043
▁alternative	-10.0434
▁defence	-10.0438
▁arrival	-10.0443
haps	-10.0448
▁miss	-10.0448
lo	-10.0451
▁contest	-10.0453
▁Pro	-10.0456
lin	-10.0456
▁Its	-10.0458
▁acquired	-10.0467
▁Cambridge	-10.047
▁MD	-10.0476
▁Andrew	-10.0478
▁critic	-10.0481
▁tradition	-10.0484
▁planet	-10.0485
6	-10.0487
▁driver	-10.0495
▁Never	-10.0497
▁Player	-10.0497
▁aim	-10.0501
▁newly	-10.0505
▁occasional	-10.0516
bo	-10.0522
▁adult	-10.0522
▁sports	-10.0523
▁investigation	-10.0524
▁seventh	-10.053
▁spot	-10.0545
▁authorities	-10.0553
▁Grant	-10.0555
▁solo	-10.0558
▁42	-10.0562
▁zone	-10.0563
▁semi	-10.0565
ba	-10.0568
▁52	-10.057
▁Russia	-10.0571
▁defensive	-10.0573
▁centuries	-10.0575
▁crowd	-10.0581
▁genu	-10.0581
▁1967	-10.0584
▁People	-10.0589
▁headquarters	-10.0593
▁exchange	-10.0594
▁recommend	-10.0604
ek	-10.0606
▁Development	-10.0614
▁arrange	-10.0614
▁vehicles	-10.0625
▁bomb	-10.0626
▁improve	-10.063
▁41	-10.0631
▁affair	-10.0631
▁breed	-10.0633
▁Square	-10.0637
▁Ko	-10.0641
▁determined	-10.0646
▁occupi	-10.0651
▁families	-10.0651
▁Among	-10.0653
▁lives	-10.0653
▁Ottoman	-10.0654
▁household	-10.0655
▁Liverpool	-10.0657
▁security	-10.0664
▁computer	-10.0665
▁800	-10.0666
▁controlled	-10.0668
▁street	-10.0675
▁Nintendo	-10.0694
▁Lewis	-10.0694
▁46	-10.0697
▁refer	-10.0705
▁Law	-10.0706
▁prison	-10.071
▁Columbia	-10.0719
▁turret	-10.0722
▁econom	-10.0731
▁temple	-10.0738
▁declin	-10.0749
▁Lieutenant	-10.0753
▁dollar	-10.0755
▁Additional	-10.076
▁protection	-10.076
▁replace	-10.0761
▁Office	-10.0762
▁emerg	-10.0763
▁branch	-10.0764
▁singing	-10.0773
▁plants	-10.0779
▁Bell	-10.0782
older	-10.0787
▁Asia	-10.0788
▁ideas	-10.0791
▁guard	-10.0791
▁piano	-10.0795
▁shooting	-10.0798
▁paint	-10.0804
▁Turk	-10.0806
▁Ma	-10.0807
▁thing	-10.0826
▁gradual	-10.0833
▁schedul	-10.0837
▁Daniel	-10.0837
▁mountain	-10.0845
▁steam	-10.0851
▁Olympic	-10.0856
▁1983	-10.0857
▁farm	-10.0864
von	-10.0867
▁intensit	-10.0867
▁Gulf	-10.0869
▁rare	-10.0874
▁nuclea	-10.0875
▁brigade	-10.0876
▁hope	-10.0881
▁Jewish	-10.0883
▁Christ	-10.0888
▁debate	-10.0892
▁comic	-10.0897
▁follows	-10.0898
▁Francisco	-10.0905
▁iron	-10.0906
▁Anderson	-10.091
▁SR	-10.0911
▁pro	-10.0919
▁1964	-10.0927
▁Railway	-10.0929
▁Miller	-10.0929
▁mouth	-10.0937
▁1969	-10.0941
▁flooding	-10.0947
▁43	-10.0961
▁indicate	-10.097
▁fresh	-10.0977
▁fair	-10.098
▁Carey	-10.0981
▁Davis	-10.0986
▁let	-10.0995
G	-10.1017
▁renam	-10.1024
▁Emperor	-10.1026
▁1914	-10.103
▁hair	-10.1032
em	-10.104
▁Conference	-10.1044
▁PlayStation	-10.105
▁1918	-10.1055
▁HMS	-10.1059
▁volume	-10.1062
▁120	-10.1063
▁print	-10.1065
▁Steve	-10.1068
▁chance	-10.1074
▁supporter	-10.1079
▁Brian	-10.1082
▁1982	-10.1083
N	-10.1084
▁Americans	-10.1086
au	-10.1088
▁1971	-10.1095
▁CD	-10.1097
▁depend	-10.1105
▁Ne	-10.1117
▁rail	-10.1118
▁1966	-10.1122
▁Un	-10.1128
▁1972	-10.1134
▁Jean	-10.1135
▁Mar	-10.114
▁1979	-10.1145
▁promotion	-10.1156
R	-10.1158
▁cap	-10.1161
▁facilities	-10.1163
bury	-10.1173
▁happen	-10.1176
▁install	-10.118
▁principal	-10.1186
▁44	-10.1187
▁constant	-10.1187
▁cell	-10.1191
▁product	-10.1202
▁notable	-10.1204
▁weak	-10.1205
E	-10.1208
▁escort	-10.121
▁publication	-10.1213
▁department	-10.1217
▁accident	-10.1226
▁types	-10.1228
▁Good	-10.1233
▁1965	-10.1244
▁drawn	-10.1244
▁reaction	-10.1246
▁core	-10.1248
▁submarine	-10.1249
▁dai	-10.1254
▁gives	-10.1256
why	-10.1256
▁cold	-10.1256
▁NHL	-10.1261
▁intersection	-10.127
▁dress	-10.1272
▁unusual	-10.1272
▁Indiana	-10.1282
▁fit	-10.1291
▁platform	-10.1299
▁roads	-10.13
▁surprise	-10.1304
▁1975	-10.1304
▁analysis	-10.1309
▁lay	-10.1312
▁yellow	-10.1317
▁combination	-10.1319
▁steel	-10.132
▁symbol	-10.1325
▁arrive	-10.1335
▁heat	-10.1341
▁purchase	-10.1342
ized	-10.1344
▁Original	-10.1345
▁strike	-10.1347
▁pitch	-10.1347
▁singles	-10.1348
▁Bowl	-10.1348
▁defin	-10.1352
bound	-10.1353
▁promote	-10.1357
▁hir	-10.1359
▁Bank	-10.1366
me	-10.1383
▁Jr	-10.1383
▁Hollywood	-10.1384
▁religion	-10.1396
▁1974	-10.1401
cross	-10.1408
sen	-10.1411
▁lap	-10.1411
▁try	-10.1415
quite	-10.1417
▁table	-10.1419
▁entrance	-10.1423
▁assistant	-10.143
▁cricket	-10.1436
▁decline	-10.1444
▁1973	-10.1454
▁Station	-10.1458
▁Democratic	-10.1466
▁climb	-10.1466
▁themes	-10.1472
▁editor	-10.1472
▁Singapore	-10.1476
▁Rose	-10.1476
▁51	-10.1477
gun	-10.1483
▁finds	-10.1489
▁bank	-10.1491
▁casualties	-10.1502
▁flat	-10.1505
▁Dan	-10.1505
▁Between	-10.1506
▁easi	-10.1511
▁Supreme	-10.1518
▁Disney	-10.1522
▁Land	-10.1522
▁islands	-10.1525
ja	-10.1528
▁1976	-10.1543
▁Press	-10.1544
▁tend	-10.1545
▁Way	-10.1548
▁Lady	-10.1574
▁joint	-10.1577
▁painting	-10.158
▁News	-10.1581
▁locations	-10.1582
mon	-10.1586
▁Wall	-10.1587
▁agent	-10.1593
▁domestic	-10.1595
▁boats	-10.1596
▁fruit	-10.1596
▁journalist	-10.16
ut	-10.1607
stone	-10.1614
▁approved	-10.1618
▁programme	-10.1621
gen	-10.1623
▁Colonel	-10.1626
ji	-10.1628
▁depart	-10.1633
▁decide	-10.1666
▁losses	-10.1667
▁basic	-10.1668
▁eyes	-10.167
knew	-10.1673
▁literature	-10.1678
▁Women	-10.1685
▁Q	-10.1685
▁Daily	-10.1688
▁electric	-10.1688
drew	-10.1689
▁exact	-10.1689
▁poem	-10.169
▁row	-10.1697
▁boy	-10.17
▁Muslim	-10.1704
ang	-10.1704
▁Mac	-10.1705
P	-10.171
▁path	-10.1711
▁Out	-10.1716
▁kick	-10.1717
▁Matt	-10.172
▁trains	-10.1722
ability	-10.1725
▁Bo	-10.1733
▁Can	-10.1736
▁Bart	-10.1738
▁Beyoncé	-10.1739
▁unlike	-10.1744
▁unsuccessful	-10.1745
▁Book	-10.1755
▁roll	-10.1756
▁urban	-10.1758
▁End	-10.1761
ci	-10.1764
▁technology	-10.1765
▁secure	-10.1767
▁goes	-10.1769
▁resistance	-10.1775
▁250	-10.1776
▁prepared	-10.1781
▁calls	-10.1785
▁Summer	-10.1788
▁reputation	-10.1789
▁introduction	-10.1798
▁Cape	-10.1805
▁habitat	-10.1813
▁responsibilit	-10.1815
▁proceed	-10.182
▁Ed	-10.183
▁sequel	-10.1846
▁fashion	-10.1851
▁wor	-10.1853
▁grade	-10.1854
ah	-10.1858
▁Who	-10.1859
▁Clark	-10.1862
▁gett	-10.1871
▁Kentucky	-10.1877
▁95	-10.188
▁SS	-10.1881
▁1946	-10.1889
▁scientific	-10.1889
▁1981	-10.1894
▁straight	-10.1894
▁fort	-10.1904
▁store	-10.1915
▁roles	-10.1924
▁Airport	-10.1925
▁freeway	-10.1926
▁popularity	-10.1926
▁turns	-10.1937
▁Lincoln	-10.1939
▁method	-10.1947
▁object	-10.1955
▁Norway	-10.1962
▁extension	-10.197
▁albums	-10.1971
▁Pre	-10.1974
▁channel	-10.1977
▁employed	-10.1979
▁travell	-10.1981
▁settl	-10.199
▁seconds	-10.1998
kin	-10.1999
▁dispute	-10.1999
▁appli	-10.2001
▁museum	-10.2004
▁1917	-10.2005
▁southeast	-10.2006
▁survey	-10.2007
▁coal	-10.2012
ger	-10.2014
▁85	-10.2015
▁dry	-10.2018
▁passage	-10.202
▁Main	-10.2023
▁ray	-10.2023
▁Golden	-10.2024
▁compet	-10.2026
F	-10.204
▁structures	-10.205
▁n	-10.2052
▁distinguish	-10.2055
▁IV	-10.2056
▁Massachusetts	-10.2058
▁slave	-10.2059
▁desire	-10.2064
nything	-10.2073
▁journey	-10.208
▁Public	-10.2081
▁strateg	-10.2082
▁depth	-10.2087
▁reform	-10.2097
▁Special	-10.2102
▁awards	-10.2104
▁favour	-10.2114
▁Per	-10.212
ph	-10.2121
▁stadium	-10.2123
▁continu	-10.213
▁description	-10.213
▁industrial	-10.213
▁Boy	-10.2134
▁transfer	-10.2143
▁distribution	-10.2143
▁layer	-10.2152
▁planning	-10.2156
▁possibilit	-10.2158
▁knowledge	-10.2162
▁genre	-10.2172
▁reserve	-10.2174
▁Con	-10.2177
▁1948	-10.2179
▁homes	-10.2188
▁existence	-10.2188
▁register	-10.2195
▁rush	-10.2198
▁raise	-10.22
▁missing	-10.2201
▁southwest	-10.2203
▁distinct	-10.2204
▁About	-10.2212
▁buri	-10.2213
▁Ray	-10.2218
▁statement	-10.2219
▁Video	-10.2228
ana	-10.2235
▁roof	-10.224
ig	-10.2241
▁Dark	-10.2241
va	-10.2241
▁assum	-10.2242
▁garden	-10.2244
▁lb	-10.225
▁Radio	-10.2264
▁responded	-10.2271
▁letters	-10.2276
▁theatre	-10.2288
▁safet	-10.2292
▁Byzantine	-10.2295
▁dismiss	-10.2299
▁surround	-10.2299
▁connected	-10.2301
▁1978	-10.2302
▁rich	-10.2302
▁Moore	-10.2304
▁nor	-10.2313
▁baseball	-10.2314
▁reading	-10.2317
▁praise	-10.232
▁reasons	-10.232
▁regions	-10.2322
▁entitl	-10.2332
▁Imperial	-10.2334
▁Age	-10.2346
▁festival	-10.2353
▁moderate	-10.2359
▁Justice	-10.2362
all	-10.2365
▁54	-10.2366
▁wood	-10.2367
io	-10.2369
▁Olympics	-10.2369
▁committ	-10.2371
▁Even	-10.2374
▁challenge	-10.2376
up	-10.2381
▁recruit	-10.2384
▁Sunday	-10.2392
ack	-10.2399
▁shoot	-10.2401
▁Director	-10.2404
sh	-10.2405
▁wild	-10.2406
▁1915	-10.2407
▁bird	-10.2407
▁bowl	-10.2409
▁Poland	-10.2426
▁invit	-10.2432
▁1977	-10.2435
▁Sydney	-10.2437
▁Am	-10.244
▁landfall	-10.2442
▁Naval	-10.2442
▁Sound	-10.2443
▁Maryland	-10.2445
▁Arab	-10.2448
▁technical	-10.2453
▁Recording	-10.2454
▁charts	-10.248
▁afterward	-10.2481
▁master	-10.2482
▁stopp	-10.2482
▁driv	-10.2485
selling	-10.2485
▁gamepla	-10.2488
vi	-10.2488
▁MTV	-10.2491
▁opera	-10.2492
▁brand	-10.2498
▁scheme	-10.2502
▁eat	-10.2528
▁winner	-10.2537
▁credited	-10.2538
▁violence	-10.2545
▁cells	-10.2545
▁regiment	-10.2551
▁1963	-10.2552
▁repair	-10.256
ization	-10.2566
▁am	-10.2572
▁700	-10.2576
inches	-10.2579
▁Part	-10.2585
▁signal	-10.2598
▁Theatre	-10.2602
thing	-10.2605
▁Moon	-10.2607
▁battery	-10.2607
▁Simon	-10.2611
▁skin	-10.2614
▁send	-10.262
▁1916	-10.2621
▁hero	-10.2622
▁politics	-10.2625
▁hall	-10.2631
▁Alan	-10.2631
▁turning	-10.2634
K	-10.2635
▁none	-10.2649
▁tall	-10.2662
▁Mulder	-10.2666
▁Gordon	-10.2667
▁independence	-10.2671
O	-10.2672
▁Ca	-10.2673
▁secur	-10.2676
tic	-10.2684
▁Na	-10.2685
▁items	-10.2692
▁sites	-10.2694
que	-10.2695
▁brothers	-10.2706
▁equal	-10.2706
▁stock	-10.2709
▁transition	-10.2717
▁rules	-10.2726
▁Play	-10.2727
▁Songs	-10.2729
▁bottom	-10.2733
▁worth	-10.2741
▁classic	-10.2745
▁bigge	-10.2747
▁prompt	-10.2749
mer	-10.275
▁Stadium	-10.2752
▁1919	-10.2758
▁finding	-10.2759
▁campus	-10.2765
▁argue	-10.2769
▁1962	-10.2772
▁animat	-10.2773
▁employee	-10.2782
▁wealth	-10.2786
▁indicated	-10.2786
▁evening	-10.2793
▁struggle	-10.2795
▁rescue	-10.2798
▁disc	-10.2802
ett	-10.2804
▁delivered	-10.2804
▁equipp	-10.2808
▁drop	-10.2811
cher	-10.2812
▁Ni	-10.2812
ches	-10.2813
▁cars	-10.2819
▁Albert	-10.2823
▁shap	-10.2824
▁aware	-10.2825
▁nomination	-10.2825
▁civilian	-10.2827
▁scientist	-10.2828
▁observation	-10.2833
▁handle	-10.2834
▁boundar	-10.2839
▁titles	-10.2842
▁56	-10.2846
▁Prior	-10.2855
▁exit	-10.2855
▁Space	-10.2856
▁fun	-10.2858
▁Mu	-10.2859
▁studi	-10.2863
ino	-10.2864
▁1938	-10.2877
▁producing	-10.288
▁Critical	-10.2883
▁bought	-10.2888
hu	-10.2893
▁protein	-10.2898
▁showing	-10.2904
don	-10.2907
▁Brad	-10.2908
▁flank	-10.2913
▁Jay	-10.2917
▁owner	-10.2917
▁Just	-10.2921
▁ago	-10.2924
▁knots	-10.2927
▁online	-10.2927
▁essential	-10.2938
▁replacement	-10.2939
▁download	-10.294
ac	-10.2942
▁relief	-10.295
▁Ross	-10.2951
▁substantial	-10.2955
▁factor	-10.2957
▁powers	-10.2973
▁Rome	-10.2977
▁models	-10.2978
▁serv	-10.2992
▁duty	-10.2993
un	-10.2993
▁crown	-10.2996
▁kingdom	-10.3002
▁Fire	-10.3014
▁deploy	-10.3018
ng	-10.3021
▁equivalent	-10.3029
▁Tony	-10.3031
▁ends	-10.3032
▁shell	-10.3034
▁partner	-10.3034
▁53	-10.3035
spread	-10.3036
▁controversy	-10.3036
▁Egypt	-10.3036
▁projects	-10.3037
▁di	-10.3038
hi	-10.3039
▁component	-10.3041
▁internal	-10.3044
▁mode	-10.3044
▁Po	-10.305
ny	-10.305
▁spirit	-10.3054
▁Memorial	-10.3054
▁Beach	-10.3064
▁1956	-10.3072
▁experienc	-10.3073
▁academic	-10.3079
▁actress	-10.3083
▁ridge	-10.3085
▁engineer	-10.3092
▁dominat	-10.3094
▁Kent	-10.3099
▁Arts	-10.3102
▁entry	-10.3106
▁deni	-10.3108
▁cent	-10.3111
▁restor	-10.3114
▁emergenc	-10.3115
▁recalled	-10.3118
▁global	-10.3121
▁sufficient	-10.3121
▁76	-10.3122
▁tank	-10.3125
▁hotel	-10.3127
▁survived	-10.3127
▁Adam	-10.313
L	-10.3137
▁Hungarian	-10.3139
▁establishment	-10.3142
▁details	-10.3143
▁note	-10.3143
▁Pop	-10.3144
▁departure	-10.3147
▁premiere	-10.3151
▁seasons	-10.3152
▁remainder	-10.3158
▁breeding	-10.3159
▁manner	-10.3163
▁Revolution	-10.3164
ster	-10.3166
▁heads	-10.3166
▁relations	-10.3167
▁admitted	-10.3171
▁1936	-10.3175
▁Hamilton	-10.3179
▁Douglas	-10.3186
▁Thu	-10.3187
▁views	-10.3187
▁airport	-10.3189
han	-10.3196
▁Kong	-10.3196
▁Plot	-10.32
▁IGN	-10.3205
▁Adams	-10.3208
▁Singles	-10.321
▁headed	-10.321
▁Power	-10.3212
▁classification	-10.3215
J	-10.3216
▁convoy	-10.3217
▁inter	-10.3224
▁drug	-10.3226
▁Philip	-10.3237
▁wish	-10.325
▁Kennedy	-10.326
▁preparation	-10.3261
▁sets	-10.3265
▁income	-10.3265
ised	-10.3279
▁Head	-10.3284
▁Bush	-10.3285
▁catch	-10.3287
▁meters	-10.3289
▁emotional	-10.3293
▁Science	-10.3301
▁1961	-10.3304
UTC	-10.3306
ver	-10.331
▁accus	-10.3313
▁Mi	-10.3316
▁union	-10.3318
▁tunnel	-10.3321
aw	-10.3322
▁Your	-10.3323
▁Howard	-10.3327
▁engines	-10.333
▁trail	-10.3332
▁Water	-10.3335
▁instance	-10.3336
▁Norman	-10.3342
▁intention	-10.3352
▁Mountain	-10.3352
▁NBA	-10.3355
ical	-10.3355
▁buy	-10.3369
▁picture	-10.3372
▁1953	-10.3378
▁En	-10.3378
▁youth	-10.3383
▁Death	-10.3391
▁humans	-10.3391
▁stages	-10.3394
▁attain	-10.3396
▁Roger	-10.3397
▁designer	-10.3399
▁connection	-10.3399
▁Today	-10.34
▁duties	-10.3401
▁generat	-10.3411
op	-10.3415
▁Magazine	-10.3416
▁programs	-10.3416
▁attribut	-10.3418
▁Band	-10.3421
▁remember	-10.3424
▁Military	-10.3428
▁rural	-10.3429
▁someone	-10.343
▁decrease	-10.3431
▁tanks	-10.3437
▁Initial	-10.3442
▁ex	-10.3442
▁eighth	-10.3447
▁generation	-10.3449
▁Car	-10.3453
▁Back	-10.3459
▁Project	-10.346
▁Han	-10.3461
▁Scully	-10.3465
▁Five	-10.3469
▁identity	-10.3471
▁ill	-10.3475
▁Norwegian	-10.3481
▁Design	-10.3488
▁Free	-10.3495
▁writes	-10.3498
▁armour	-10.3499
▁lift	-10.3501
▁Research	-10.3503
▁Hitler	-10.3504
▁pattern	-10.3511
▁freedom	-10.3513
▁recognition	-10.3514
chi	-10.3522
▁1947	-10.3523
▁measure	-10.3524
▁import	-10.3525
▁segment	-10.3535
▁conclusion	-10.3538
▁climate	-10.3538
▁lose	-10.3538
-	-10.3539
▁champion	-10.3543
▁1958	-10.3544
wa	-10.3544
▁regional	-10.3547
▁hip	-10.3551
▁charg	-10.3552
ski	-10.3552
▁Ch	-10.356
▁products	-10.3564
▁convention	-10.3569
▁ensure	-10.357
round	-10.3574
▁march	-10.358
▁deriv	-10.3584
▁WWE	-10.359
I	-10.3591
▁1910	-10.3599
▁rose	-10.36
▁Mexican	-10.3601
▁describing	-10.3601
▁1957	-10.3604
▁references	-10.3608
▁corner	-10.3615
za	-10.3617
▁ticket	-10.3622
▁enemies	-10.3624
▁Germans	-10.3626
▁belt	-10.3628
▁1937	-10.3631
▁soul	-10.3632
▁Ryan	-10.3632
▁sections	-10.3633
▁determine	-10.3634
▁Assembly	-10.364
▁visitor	-10.3644
▁patrol	-10.3644
▁66	-10.3648
▁towns	-10.3648
▁objects	-10.3653
▁males	-10.3653
▁dated	-10.3653
▁certifi	-10.3659
▁stoo	-10.3662
▁alter	-10.3662
▁Cleveland	-10.3667
▁Girl	-10.3669
port	-10.3672
ru	-10.3674
▁exercise	-10.3675
▁glass	-10.3675
▁medal	-10.3683
▁FA	-10.3684
▁Media	-10.3684
▁Rolling	-10.3691
▁Illinois	-10.3693
▁minister	-10.3696
▁restaurant	-10.3698
▁Col	-10.3705
▁Ver	-10.3707
▁chemical	-10.3712
▁slowly	-10.3718
▁considerabl	-10.372
▁Iron	-10.3723
▁cool	-10.3737
▁Sky	-10.3751
▁attached	-10.3754
▁Arsenal	-10.3757
▁Dean	-10.3759
▁cycle	-10.3762
▁deem	-10.3773
▁atmosphere	-10.3773
po	-10.378
▁highlight	-10.3781
▁behavior	-10.3784
▁surviv	-10.3786
▁correct	-10.3787
▁Weekly	-10.379
▁1959	-10.3793
▁origin	-10.3796
▁Review	-10.3796
▁hits	-10.3799
▁acclaim	-10.3802
▁Stanley	-10.3803
▁circulation	-10.3806
▁favorite	-10.382
▁foundation	-10.382
▁130	-10.3824
▁achieve	-10.3825
pa	-10.3829
▁Bruce	-10.383
▁Third	-10.3832
▁acid	-10.3833
▁58	-10.3834
▁57	-10.3837
▁valley	-10.384
▁Forest	-10.3845
▁laws	-10.3845
▁obtained	-10.3856
▁Kevin	-10.3864
▁Jeff	-10.3869
▁judge	-10.387
▁terminus	-10.3875
▁Family	-10.3876
▁vessels	-10.3876
▁opposite	-10.3879
▁Mediterranea	-10.388
▁Andy	-10.3883
▁insist	-10.3886
▁1955	-10.3887
▁1954	-10.3887
T	-10.3887
▁Allen	-10.3887
▁inspiration	-10.3889
ker	-10.3892
▁Beatles	-10.3894
▁supposed	-10.3894
▁intelligence	-10.3894
▁citizens	-10.3898
▁waters	-10.3899
▁Bristol	-10.3902
▁Release	-10.3913
ran	-10.3913
▁premier	-10.3922
ius	-10.3922
ck	-10.3924
SBN	-10.3924
▁literar	-10.3924
▁Carl	-10.3929
▁Morgan	-10.393
▁criminal	-10.3932
▁superior	-10.3935
▁Channel	-10.3935
▁funds	-10.3935
▁page	-10.3937
▁prey	-10.3937
▁theater	-10.394
▁Premier	-10.3942
▁solid	-10.3952
▁dog	-10.3954
▁shipp	-10.3958
▁withdraw	-10.3958
▁completion	-10.3963
▁founder	-10.3964
▁doctor	-10.3964
▁Morris	-10.397
▁predict	-10.398
▁Marine	-10.3984
▁benefit	-10.4004
▁images	-10.4004
▁Bishop	-10.4005
▁thirty	-10.4005
▁warm	-10.4007
▁Chi	-10.4008
▁van	-10.4012
▁possession	-10.4013
▁feeling	-10.4013
▁merchant	-10.4016
▁Max	-10.4017
▁downtown	-10.4017
craft	-10.4018
▁sort	-10.4019
▁answer	-10.4028
▁designs	-10.4047
ists	-10.4049
▁sole	-10.4049
▁Fame	-10.4056
▁destruction	-10.4058
▁alien	-10.4062
▁interior	-10.4065
▁hill	-10.4067
▁trad	-10.4069
▁moral	-10.407
▁spoke	-10.4081
▁assistance	-10.4082
▁cloud	-10.4083
▁Korea	-10.4085
▁memorial	-10.4087
▁outer	-10.4096
▁Lisa	-10.4104
▁Master	-10.4107
▁association	-10.4109
▁cruiser	-10.4113
▁sport	-10.4114
▁Ken	-10.4118
▁Robinson	-10.4119
▁wickets	-10.4121
▁venue	-10.4129
▁creator	-10.4132
▁places	-10.4135
▁Anne	-10.4136
▁tied	-10.4137
ence	-10.4144
▁operate	-10.4144
▁suspect	-10.4146
▁Temple	-10.4147
▁Within	-10.4148
▁properties	-10.4154
▁vehicle	-10.4175
▁1952	-10.4185
▁alleged	-10.4186
▁impress	-10.4186
▁switch	-10.4187
▁chorus	-10.4193
▁110	-10.4198
der	-10.42
▁gather	-10.42
▁massive	-10.4201
▁Lo	-10.4225
▁Tim	-10.4225
▁ha	-10.4228
▁Nick	-10.4235
▁capabl	-10.4237
▁garrison	-10.4238
▁62	-10.4241
▁door	-10.4243
▁credit	-10.4244
▁estimate	-10.4247
ong	-10.4249
▁touchdown	-10.425
▁Francis	-10.4251
▁cavalry	-10.4255
▁narrative	-10.4255
▁distribut	-10.4257
▁differ	-10.426
▁incorporated	-10.4261
▁Oregon	-10.4262
▁ride	-10.4264
▁Unlike	-10.4266
▁ready	-10.4267
▁Horse	-10.4276
▁news	-10.4278
▁dates	-10.428
▁Construction	-10.428
▁passengers	-10.4282
▁1933	-10.4287
▁Television	-10.4289
▁Similar	-10.4294
▁romantic	-10.4294
▁mark	-10.4297
▁females	-10.4302
ade	-10.4313
▁Hav	-10.4316
▁Nelson	-10.4322
▁Far	-10.4325
▁honour	-10.4326
▁participate	-10.4333
▁Dream	-10.4335
▁Cha	-10.4339
▁lake	-10.4343
▁circle	-10.4345
▁pack	-10.4347
▁stream	-10.4356
▁weapon	-10.4358
▁recovered	-10.4361
▁lands	-10.4364
▁classified	-10.4367
▁survive	-10.437
▁expos	-10.4373
▁Sweden	-10.4377
ven	-10.439
▁Eric	-10.4391
▁1935	-10.4391
▁Ho	-10.4392
▁Six	-10.4394
AAF	-10.4394
▁eleven	-10.4399
ow	-10.44
▁Patrick	-10.4402
over	-10.4406
▁Winter	-10.4408
▁collapse	-10.441
▁intensifi	-10.4412
▁brain	-10.4415
▁stretch	-10.4417
▁Command	-10.4419
▁bands	-10.442
▁ranking	-10.4424
▁Tower	-10.4428
▁72	-10.443
▁Toronto	-10.443
▁Anna	-10.4448
shire	-10.446
▁patient	-10.446
▁Finn	-10.4461
▁1951	-10.4462
what	-10.4462
▁Welsh	-10.4465
▁1949	-10.4466
▁61	-10.447
bu	-10.4479
▁Santa	-10.4484
▁outbreak	-10.4486
▁animation	-10.4494
▁protagonist	-10.4499
▁Jane	-10.4512
▁reality	-10.4521
▁memory	-10.4522
▁load	-10.4536
▁die	-10.4536
▁inner	-10.4538
▁Jordan	-10.4547
▁routes	-10.4548
▁obtain	-10.4554
▁charges	-10.4559
▁Du	-10.4568
▁sale	-10.4568
▁adaptation	-10.4571
▁Lind	-10.4572
▁strip	-10.4577
▁basketball	-10.4577
▁poll	-10.4577
▁Netherlands	-10.4578
▁communities	-10.4591
▁fly	-10.4597
▁fictional	-10.4597
▁schedule	-10.4602
om	-10.461
▁separated	-10.461
formula	-10.4611
▁crop	-10.4614
▁colour	-10.4618
▁seed	-10.462
▁Ford	-10.4624
▁controversial	-10.4629
▁Nations	-10.4635
▁finishing	-10.4637
▁classical	-10.4641
▁Bad	-10.4642
▁differences	-10.4654
▁monument	-10.4661
▁sun	-10.4666
▁anniversary	-10.4668
▁plane	-10.4677
▁methods	-10.4681
▁rat	-10.4681
▁Again	-10.4682
▁Jews	-10.4694
▁doubt	-10.4699
▁architecture	-10.4699
▁soil	-10.47
▁Jan	-10.4704
jo	-10.4709
▁passenger	-10.4712
▁penalty	-10.4716
▁delay	-10.4717
▁teaching	-10.4719
▁1900	-10.472
▁Croatian	-10.4724
ber	-10.4725
▁Russell	-10.4729
▁59	-10.4731
▁Centre	-10.4732
▁express	-10.4733
▁consistent	-10.4737
▁Here	-10.474
▁absence	-10.4743
▁Wright	-10.4747
▁batting	-10.4751
▁fighter	-10.4753
ea	-10.4757
▁apart	-10.476
▁Ron	-10.4763
▁cancer	-10.4764
▁giant	-10.4767
▁missions	-10.4768
▁Sports	-10.4769
▁throne	-10.477
▁comparison	-10.477
temporary	-10.4771
uk	-10.4778
▁Jo	-10.4781
▁cloth	-10.4782
▁tries	-10.4799
▁documentary	-10.4799
▁eliminat	-10.4799
▁hot	-10.4803
▁involvement	-10.4807
▁worst	-10.4822
▁Thompson	-10.4823
▁compete	-10.4826
▁criticis	-10.4834
▁Class	-10.4846
▁grounds	-10.4851
▁delayed	-10.4857
▁discovery	-10.4871
ax	-10.4873
▁Puerto	-10.4877
▁Maria	-10.4878
▁monitor	-10.488
▁athlete	-10.4889
▁Knight	-10.4889
▁exhibit	-10.4893
▁intense	-10.4895
▁sharp	-10.4901
▁bound	-10.4902
▁Carter	-10.4904
▁weekend	-10.4904
▁step	-10.4907
▁NFL	-10.4907
▁Federal	-10.4908
▁govern	-10.4916
▁chain	-10.492
▁shop	-10.492
▁dissipat	-10.4922
▁Last	-10.4924
▁Islam	-10.4928
▁160	-10.4929
▁99	-10.4931
▁requirement	-10.4935
▁bright	-10.4935
▁63	-10.4939
▁presidential	-10.4939
▁pace	-10.4939
▁medieval	-10.494
▁residence	-10.4944
▁genetic	-10.4946
▁Commander	-10.495
▁library	-10.4952
▁Kelly	-10.4958
▁Late	-10.4958
▁AD	-10.4969
▁Alex	-10.4978
▁vision	-10.4979
▁chamber	-10.4982
▁DE	-10.4985
shore	-10.4988
▁min	-10.4988
▁challeng	-10.499
▁politician	-10.4991
▁retirement	-10.4991
▁Modern	-10.4997
▁Constitution	-10.4998
▁ninth	-10.5003
▁Along	-10.5005
▁resources	-10.5006
▁musicians	-10.5026
he	-10.5028
▁Now	-10.5029
▁Network	-10.5033
▁gift	-10.5036
▁siege	-10.5042
▁restrict	-10.5047
▁pure	-10.5054
▁Hospital	-10.506
mar	-10.5061
▁orbit	-10.5062
ini	-10.5075
▁arrangement	-10.5078
▁revenue	-10.5082
▁1913	-10.5083
ure	-10.5083
▁Ham	-10.5083
▁Police	-10.5085
▁fitted	-10.5095
▁Batman	-10.5096
▁ratings	-10.5096
▁else	-10.5097
borne	-10.5098
▁weigh	-10.5099
▁bass	-10.5101
▁Parker	-10.5109
mann	-10.5129
▁Berlin	-10.5129
▁96	-10.5132
▁dating	-10.514
bi	-10.5141
▁gate	-10.5152
▁negotiation	-10.5153
▁1926	-10.5156
▁du	-10.5157
ron	-10.5161
▁votes	-10.5165
▁Down	-10.5168
▁Palace	-10.5174
▁Si	-10.5174
▁Murray	-10.5177
▁Ke	-10.5179
▁facility	-10.518
▁convecti	-10.5182
▁Fair	-10.5184
▁1927	-10.5184
▁77	-10.519
▁Library	-10.5192
▁visible	-10.5193
▁UN	-10.5194
▁DNA	-10.5196
▁colony	-10.5198
▁crosse	-10.52
▁legislation	-10.5208
▁1921	-10.5212
▁Inter	-10.5218
body	-10.5219
▁mix	-10.522
▁mental	-10.5223
▁shots	-10.5224
▁1934	-10.5227
▁94	-10.5228
▁modified	-10.5233
▁Education	-10.5233
▁stable	-10.5233
▁classe	-10.5238
▁sand	-10.5238
▁code	-10.5239
▁remove	-10.524
▁shark	-10.5241
▁78	-10.5244
▁format	-10.5247
con	-10.5248
▁stands	-10.5251
▁ways	-10.5256
▁dialogue	-10.5257
▁Houston	-10.526
▁deliver	-10.5264
▁knock	-10.5267
▁Cooper	-10.5275
▁Asian	-10.5276
▁Bas	-10.5277
▁engagement	-10.5278
▁Silver	-10.5282
tenance	-10.5282
▁techniques	-10.5283
▁Ball	-10.5284
▁successor	-10.5286
neath	-10.5286
▁Corporation	-10.5288
▁gone	-10.5288
▁Cal	-10.5291
▁sponsor	-10.5297
▁Hart	-10.5301
▁68	-10.5309
▁card	-10.5315
▁monarch	-10.5316
▁74	-10.5318
▁1912	-10.532
▁Warner	-10.5323
▁tone	-10.5323
▁Track	-10.5336
▁frame	-10.5339
▁hear	-10.5339
▁gay	-10.5347
▁designation	-10.5347
▁sudden	-10.535
▁anyone	-10.5351
▁Swedish	-10.5354
▁Samuel	-10.5357
▁Commonwealth	-10.536
▁struggl	-10.5364
▁chairman	-10.5366
▁grand	-10.5368
▁Pe	-10.5369
▁folk	-10.5373
▁girls	-10.5375
▁characteristics	-10.5377
▁huge	-10.5377
▁snow	-10.5378
▁eggs	-10.538
▁suffering	-10.5381
▁super	-10.5385
▁divisions	-10.5386
ington	-10.539
▁materials	-10.5391
▁colleague	-10.5397
▁mere	-10.5399
▁populations	-10.5408
▁belong	-10.541
▁railroad	-10.541
▁1932	-10.5411
▁lies	-10.5419
▁universe	-10.5429
ata	-10.5439
▁Tu	-10.5442
lan	-10.5445
▁Medal	-10.5447
ze	-10.5451
▁sector	-10.5451
▁Gaga	-10.5452
▁environmental	-10.5459
▁Pope	-10.5459
▁nickname	-10.5461
▁preced	-10.5467
▁Anthon	-10.5467
▁developer	-10.5469
▁require	-10.5469
▁prove	-10.5471
▁colonial	-10.5475
▁intersect	-10.548
▁Holy	-10.5483
▁exception	-10.5488
▁check	-10.5489
▁implement	-10.549
▁understand	-10.5494
▁graphics	-10.5495
▁Heart	-10.5497
▁bus	-10.5498
▁Guy	-10.55
▁safe	-10.55
▁historic	-10.5501
▁spin	-10.5503
▁closer	-10.551
▁difference	-10.5513
W	-10.5514
▁chapter	-10.5517
▁beautiful	-10.5518
▁Jason	-10.5519
▁NBC	-10.5529
▁architect	-10.553
▁87	-10.553
▁streets	-10.5532
▁manage	-10.5532
▁67	-10.5534
▁adults	-10.5535
▁graduat	-10.5535
old	-10.5542
▁82	-10.5544
▁secondar	-10.5547
▁USA	-10.5547
▁influential	-10.5548
▁movements	-10.5551
▁emperor	-10.5565
▁Croatia	-10.5568
▁Mo	-10.5571
per	-10.5572
▁poet	-10.5573
▁moves	-10.5576
▁Mars	-10.5577
▁Democrat	-10.5578
▁costume	-10.5581
▁Gilbert	-10.5588
▁Detroit	-10.5591
▁occupation	-10.5591
▁Writing	-10.5598
▁touch	-10.56
ren	-10.5613
▁Frederick	-10.5617
▁Ha	-10.5619
▁qualify	-10.562
pi	-10.5622
▁transform	-10.5623
▁RAF	-10.5624
▁1929	-10.5624
▁device	-10.5626
▁bow	-10.5633
▁witness	-10.5638
▁squad	-10.5639
▁sounds	-10.5645
ise	-10.5647
ou	-10.5648
▁childhood	-10.5653
▁guilt	-10.5655
▁1911	-10.5657
▁Camp	-10.5662
▁isolat	-10.5677
▁Clinton	-10.5682
▁Journal	-10.5687
▁Princess	-10.5696
▁Evans	-10.5697
▁Vice	-10.5698
▁Lane	-10.5702
▁interaction	-10.5706
▁trust	-10.5707
▁Egyptian	-10.5709
▁concentration	-10.5713
▁Spears	-10.5715
▁ethnic	-10.572
▁1931	-10.5725
voted	-10.5727
▁900	-10.5728
▁1922	-10.5731
tz	-10.5733
▁executed	-10.5743
▁meets	-10.5743
▁firing	-10.5747
▁coat	-10.5747
ick	-10.5749
▁gap	-10.5752
▁Nielsen	-10.5753
▁Jesus	-10.5753
▁happ	-10.5754
▁wooden	-10.5754
▁balance	-10.5758
▁Melbourne	-10.5763
▁Israel	-10.5766
▁chair	-10.5767
▁diameter	-10.5769
▁Building	-10.5769
▁tension	-10.577
▁involve	-10.5771
▁Stewart	-10.5772
▁69	-10.5785
oc	-10.58
▁hearing	-10.5802
▁tribute	-10.5808
▁Xbox	-10.5815
▁hunting	-10.5823
▁provision	-10.5825
▁uniform	-10.5825
▁recover	-10.5832
ara	-10.5834
▁Arm	-10.5835
▁measures	-10.584
▁Ann	-10.5841
▁facing	-10.5841
▁talent	-10.5844
▁Category	-10.5844
▁Lennon	-10.5844
▁Te	-10.5846
▁earth	-10.5849
▁Anglo	-10.5851
▁afternoon	-10.5857
▁Phil	-10.5858
▁belief	-10.5864
▁partial	-10.5867
▁Angel	-10.5871
▁audio	-10.5877
ub	-10.5883
▁phone	-10.5885
▁footage	-10.5886
▁radar	-10.5887
▁instruments	-10.5889
▁victims	-10.5891
▁180	-10.5893
▁encourag	-10.5896
back	-10.5902
▁trained	-10.5905
▁resigned	-10.5907
▁lawyer	-10.5908
▁Khan	-10.5909
ung	-10.5911
▁carbon	-10.5911
▁experiment	-10.5913
▁flew	-10.5914
▁73	-10.5918
▁vessel	-10.5926
▁Colorado	-10.5927
▁preferred	-10.5929
▁Dave	-10.5931
ston	-10.594
▁collaboration	-10.5942
▁deposit	-10.5943
▁88	-10.5944
▁Hu	-10.5947
▁neck	-10.5948
▁notabl	-10.5949
▁ideal	-10.5951
▁extent	-10.5953
▁fields	-10.5955
▁remix	-10.5955
▁circuit	-10.5957
▁Foundation	-10.5957
▁Race	-10.5963
pe	-10.5971
▁violent	-10.5973
▁preserv	-10.5975
▁Brazil	-10.5975
▁junior	-10.5977
▁resolution	-10.598
▁79	-10.5982
▁Sarah	-10.5984
▁shore	-10.5987
▁Guard	-10.5988
▁tie	-10.5989
▁Baltimore	-10.599
▁Austria	-10.5996
▁Ash	-10.5996
▁Greece	-10.5997
7	-10.5998
▁curve	-10.5999
▁Area	-10.6
▁skills	-10.6004
▁accompany	-10.6007
▁holds	-10.6007
▁ruin	-10.6007
▁confront	-10.6018
▁upgrad	-10.6026
ious	-10.6026
▁thereafter	-10.6028
▁copy	-10.6033
▁militia	-10.6034
▁poetry	-10.6038
▁wrong	-10.604
▁window	-10.6041
▁owners	-10.6048
▁charter	-10.6051
rew	-10.6052
▁sons	-10.6053
▁desert	-10.6053
▁suspend	-10.6054
▁Nazi	-10.6075
▁Guardian	-10.6075
▁edit	-10.6076
▁disaster	-10.6077
▁Dance	-10.608
▁professor	-10.6082
▁enlist	-10.6083
▁Mario	-10.6089
▁Gu	-10.609
▁Story	-10.6095
▁Garden	-10.6108
▁Fall	-10.611
▁technique	-10.6112
▁interpret	-10.6113
▁Somerset	-10.6114
▁beach	-10.6118
▁Iowa	-10.6118
▁teeth	-10.6118
▁vice	-10.6123
ai	-10.6124
▁71	-10.6128
▁promise	-10.6129
▁watching	-10.6131
▁Marshall	-10.6134
▁clean	-10.6135
▁shock	-10.6139
▁offering	-10.6139
▁98	-10.614
▁Austrian	-10.6142
ood	-10.6149
▁ocean	-10.615
residential	-10.6152
▁91	-10.6155
▁continuous	-10.6157
▁hull	-10.6159
▁authors	-10.6159
▁joke	-10.6159
▁factors	-10.6159
▁taught	-10.6164
▁publisher	-10.6164
▁easy	-10.6165
▁140	-10.6168
▁standards	-10.6169
▁verse	-10.6178
▁drums	-10.6181
gi	-10.6184
di	-10.6185
▁Rob	-10.6191
▁Harris	-10.6197
▁opponents	-10.6198
▁Wrestling	-10.6209
▁margin	-10.621
▁1928	-10.621
▁Wind	-10.6217
▁erect	-10.6219
▁Ba	-10.6222
▁alliance	-10.6226
gate	-10.623
▁journal	-10.6236
▁identify	-10.624
▁ballad	-10.6241
▁Pi	-10.6246
▁stem	-10.6246
▁creative	-10.6249
▁recognis	-10.625
▁creature	-10.6252
▁Mel	-10.6254
▁Miami	-10.6261
▁sit	-10.6263
▁legs	-10.6265
▁Soon	-10.6266
▁soft	-10.6266
▁fil	-10.627
▁Albums	-10.6275
▁dangerous	-10.6279
▁sure	-10.6279
▁1925	-10.6279
▁Canal	-10.6281
▁representative	-10.6284
▁alignment	-10.6285
vo	-10.6289
gu	-10.629
▁column	-10.629
▁junction	-10.6295
▁sentence	-10.6298
▁teammate	-10.6298
▁celebrat	-10.6299
▁Confederate	-10.6305
▁Senator	-10.6306
▁wedding	-10.6307
▁Whit	-10.6307
▁See	-10.6308
gency	-10.6311
▁Every	-10.6313
▁Hindu	-10.6313
▁northward	-10.6318
▁Wing	-10.6318
sk	-10.6323
▁pit	-10.6342
▁simultaneous	-10.6343
▁1890	-10.6344
▁Seattle	-10.635
▁permission	-10.635
▁interpretation	-10.6352
▁medium	-10.6358
▁choose	-10.6359
▁platin	-10.6362
▁Ministr	-10.6364
▁electronic	-10.6369
▁learning	-10.6373
▁1924	-10.6373
▁pain	-10.6378
▁withdrew	-10.6381
▁tourist	-10.6383
▁loop	-10.6384
▁crisis	-10.6385
▁Human	-10.6396
▁elections	-10.64
▁conservative	-10.64
▁Open	-10.6402
▁sleep	-10.6403
▁boiler	-10.6409
▁salt	-10.6413
▁whereas	-10.6415
▁Gar	-10.6418
▁prime	-10.6422
▁shelter	-10.6423
▁Ro	-10.6423
ura	-10.6423
sky	-10.6429
▁veteran	-10.6433
mp	-10.6435
▁Mill	-10.6437
▁Giants	-10.6439
▁apartment	-10.6445
▁Treaty	-10.6446
▁Kim	-10.6454
▁advice	-10.6454
▁thirteen	-10.6461
▁PA	-10.6463
▁spott	-10.6475
▁Trek	-10.6476
▁fee	-10.6476
▁wrestl	-10.6482
▁Ian	-10.6485
▁testing	-10.6488
▁81	-10.649
▁mainstream	-10.6492
▁policies	-10.6493
▁cruisers	-10.6494
▁Alabama	-10.6496
▁Caribbean	-10.65
▁bypass	-10.65
▁demonstrat	-10.6501
▁diet	-10.6506
▁nest	-10.6506
▁Cap	-10.6508
▁engineering	-10.6511
▁difficulties	-10.6515
▁submitt	-10.652
▁rarely	-10.6527
▁personality	-10.6528
ica	-10.6532
▁Va	-10.6533
▁Charlie	-10.6539
▁pounds	-10.654
▁Da	-10.6544
▁Bi	-10.6546
▁toll	-10.6546
▁predator	-10.6554
▁illegal	-10.6556
▁Lawrence	-10.656
▁drawing	-10.6569
▁Front	-10.6573
▁specimens	-10.6578
▁84	-10.6585
▁1923	-10.6586
▁appointment	-10.6588
▁elder	-10.659
low	-10.6591
▁importan	-10.6594
▁shear	-10.6596
tropical	-10.6596
▁suicide	-10.6599
▁Minnesota	-10.6606
▁Sch	-10.6609
▁clubs	-10.6613
▁scholars	-10.6614
▁achievement	-10.6614
▁forcing	-10.6617
▁needs	-10.6624
▁approval	-10.6627
▁Crown	-10.6636
▁wound	-10.6637
▁93	-10.6637
▁attitude	-10.6638
eg	-10.6646
▁partie	-10.6646
▁smooth	-10.6648
▁emphasis	-10.6649
▁vertical	-10.6649
▁compilation	-10.665
▁interests	-10.665
▁debt	-10.665
▁loan	-10.6652
fish	-10.6654
▁faith	-10.6655
▁Fly	-10.6658
▁hockey	-10.6659
let	-10.6665
ev	-10.6678
▁86	-10.6678
▁minimum	-10.6681
▁perspective	-10.6681
▁dream	-10.6687
▁spiritual	-10.6688
▁false	-10.6691
▁Pat	-10.6692
▁Township	-10.6699
▁97	-10.6702
▁neighborhood	-10.6702
▁shoulder	-10.6703
▁tenth	-10.6706
▁Dead	-10.6709
▁Grammy	-10.6712
▁Matthew	-10.6712
▁Hungary	-10.6717
▁housing	-10.6717
▁evolution	-10.672
▁Indians	-10.6722
▁comments	-10.6725
▁Ju	-10.6726
▁Apple	-10.6728
ho	-10.6729
▁Hotel	-10.673
▁resum	-10.6731
▁appropriate	-10.6738
ette	-10.6739
▁churches	-10.6741
▁triple	-10.6746
▁Country	-10.6746
▁canal	-10.675
▁Adventure	-10.6752
▁alternate	-10.6754
▁adjacent	-10.6755
▁dynasty	-10.6762
▁agents	-10.677
▁Health	-10.6771
▁Real	-10.6784
▁Return	-10.6785
▁Lu	-10.6785
▁Belgium	-10.6788
▁finance	-10.6789
▁Much	-10.679
▁landscape	-10.6794
▁teacher	-10.6794
▁funeral	-10.6796
▁Flight	-10.6798
fa	-10.6798
▁Christopher	-10.6801
▁Hero	-10.6801
▁Diego	-10.6807
▁partnership	-10.6807
▁der	-10.6808
▁Jon	-10.6809
▁palace	-10.681
▁existed	-10.6814
▁motor	-10.6816
▁hat	-10.6817
▁prepare	-10.6819
▁Staff	-10.6823
▁descend	-10.6828
▁blow	-10.6833
ud	-10.6835
▁PC	-10.6843
▁Guide	-10.6844
▁graduate	-10.6845
▁complain	-10.6846
▁changing	-10.6846
▁Native	-10.6848
▁abandon	-10.685
▁instrumental	-10.6852
▁Walker	-10.6855
▁USD	-10.6856
▁Legac	-10.6858
▁Interstate	-10.6865
▁Children	-10.6872
▁finale	-10.6875
▁grown	-10.688
▁Let	-10.6883
▁attendance	-10.6886
▁option	-10.6892
▁map	-10.6892
▁Pan	-10.6894
▁definition	-10.6894
ward	-10.6904
going	-10.6906
▁destroyers	-10.6907
▁parent	-10.6907
▁trouble	-10.6911
▁trace	-10.6912
▁1905	-10.6913
▁evil	-10.6916
▁windows	-10.6916
▁1908	-10.6921
▁Benjamin	-10.6923
▁friendly	-10.6925
▁disappear	-10.6926
▁pursu	-10.6926
power	-10.6931
▁argument	-10.6932
▁stress	-10.6933
▁wings	-10.6933
▁jump	-10.6935
▁victories	-10.6935
▁Saxon	-10.6936
▁89	-10.6936
▁Seven	-10.6937
▁bishop	-10.6937
▁Blood	-10.6938
▁bombers	-10.6939
▁percentage	-10.6945
ach	-10.6947
▁originat	-10.6948
▁lieutenant	-10.6949
▁1909	-10.6953
▁Ki	-10.696
▁k	-10.6961
▁elsewhere	-10.6964
▁Cold	-10.6966
▁Hockey	-10.6967
▁statue	-10.6969
▁Tri	-10.6971
▁influences	-10.6973
▁Halo	-10.6974
▁priest	-10.6974
▁opponent	-10.6979
U	-10.6979
▁pursue	-10.6981
▁races	-10.6981
▁Roosevelt	-10.6982
▁pitched	-10.699
▁Raw	-10.699
▁operational	-10.6992
▁Wal	-10.6993
▁favorabl	-10.6999
▁evolv	-10.6999
▁Edge	-10.7
▁entertainment	-10.7
▁fighters	-10.7003
ku	-10.7003
▁Ta	-10.7009
▁aggressive	-10.7011
▁handed	-10.7015
▁Alfred	-10.7023
▁Chronicle	-10.7023
▁beam	-10.7024
▁scholar	-10.7032
▁Manhattan	-10.7045
NA	-10.7047
▁Fred	-10.7047
▁span	-10.705
▁languages	-10.7057
▁danger	-10.7058
▁absorb	-10.7059
▁Franklin	-10.7061
pped	-10.7063
▁context	-10.7067
▁pool	-10.707
▁marry	-10.7071
▁construct	-10.7077
▁Born	-10.7078
▁Ar	-10.708
▁concrete	-10.7104
▁signing	-10.7105
▁audition	-10.7108
idden	-10.7112
▁92	-10.7114
▁Peninsula	-10.7119
istic	-10.7126
tra	-10.713
▁1907	-10.7136
▁organizations	-10.7138
▁thin	-10.714
▁Digital	-10.7141
▁Hay	-10.7145
▁Margaret	-10.7145
▁charit	-10.7146
▁advisor	-10.7148
▁regain	-10.7153
▁profit	-10.7154
▁starts	-10.7155
▁Key	-10.7157
▁westward	-10.7158
we	-10.7159
▁reli	-10.716
off	-10.7172
▁Cat	-10.7173
▁Kansas	-10.7175
▁indicat	-10.718
▁Run	-10.7187
▁abilities	-10.719
▁profile	-10.719
▁Industry	-10.7194
▁accurate	-10.7198
▁listing	-10.7204
▁Miss	-10.7205
▁custom	-10.7207
▁credits	-10.7208
▁Del	-10.7209
▁courts	-10.721
▁Mississippi	-10.7217
▁impossible	-10.7224
▁assembl	-10.7224
▁fin	-10.7231
▁Portland	-10.7232
▁agricultural	-10.7235
▁Nash	-10.7236
▁Brand	-10.7239
▁escap	-10.7239
▁survivors	-10.7243
▁guide	-10.7244
▁situat	-10.7245
▁boys	-10.7246
▁Pass	-10.725
▁understanding	-10.725
▁telling	-10.7254
ju	-10.7254
▁investment	-10.7255
ola	-10.7257
▁notice	-10.7261
ari	-10.7262
▁Independent	-10.7266
tor	-10.7266
▁Roy	-10.7268
▁Saturday	-10.727
▁twin	-10.7278
▁truth	-10.728
▁Ice	-10.7284
▁Hong	-10.7286
▁orchestra	-10.7291
▁horror	-10.7292
▁Spring	-10.7299
▁armament	-10.7299
▁occasion	-10.7305
▁Campbell	-10.7308
▁dense	-10.7308
▁seal	-10.7316
▁USS	-10.7319
▁oxygen	-10.7319
▁occasions	-10.7327
▁1880	-10.7327
▁communist	-10.7327
▁restoration	-10.7329
▁fifteen	-10.7331
▁closing	-10.7337
▁tests	-10.7338
dale	-10.7349
▁distinctive	-10.7351
▁sample	-10.7355
▁tornado	-10.7357
▁explosion	-10.7359
▁guy	-10.7364
▁bombing	-10.7365
▁behalf	-10.7372
▁virtual	-10.7372
▁symptoms	-10.738
▁introduce	-10.7383
▁labor	-10.7384
▁rhythm	-10.7395
▁Rick	-10.7399
▁ammunition	-10.7399
▁Bre	-10.7403
▁dancer	-10.7404
▁acknowledg	-10.7408
▁del	-10.7409
▁Liberal	-10.7412
▁covering	-10.7414
▁sank	-10.7419
▁execution	-10.7419
▁relationships	-10.742
▁seats	-10.7421
8	-10.7427
▁Sullivan	-10.7432
▁angle	-10.7435
▁complet	-10.744
ip	-10.7442
▁Ti	-10.7444
▁illness	-10.7448
▁sunk	-10.7457
▁Bra	-10.746
▁concerts	-10.7466
▁burn	-10.7468
▁Enterprise	-10.7469
▁offices	-10.747
▁Warren	-10.747
▁celebration	-10.7474
▁assert	-10.7474
ez	-10.7476
▁Marie	-10.7477
light	-10.7482
▁lock	-10.7482
▁philosoph	-10.7482
▁fourteen	-10.7484
▁legend	-10.7487
ita	-10.7488
▁resemble	-10.7489
▁truck	-10.749
▁Wolf	-10.7493
▁organis	-10.7494
▁paintings	-10.7498
▁CR	-10.7501
▁Historic	-10.7507
▁Graham	-10.7508
▁faction	-10.751
ani	-10.751
▁artistic	-10.7513
▁exile	-10.7514
▁Small	-10.7515
▁Scout	-10.7516
▁explore	-10.7516
▁Tennessee	-10.7519
▁skull	-10.7519
▁explain	-10.7519
▁underground	-10.7522
▁scatter	-10.7523
▁Louisiana	-10.7527
▁cargo	-10.753
▁regulation	-10.7541
▁bonus	-10.7546
▁spell	-10.7549
oft	-10.755
▁dramatic	-10.7551
▁Lucas	-10.7551
▁Hell	-10.756
▁Missouri	-10.757
▁Honor	-10.7575
▁earthquake	-10.7578
▁Kirk	-10.758
▁1906	-10.7582
▁feed	-10.7586
mb	-10.7586
sburg	-10.7589
▁organ	-10.7591
▁arc	-10.7591
▁Montreal	-10.7597
▁Labour	-10.7597
cha	-10.76
▁360	-10.76
▁grey	-10.7605
▁bear	-10.7606
▁Tamil	-10.7606
▁bridges	-10.7609
▁fift	-10.761
▁communication	-10.7611
▁realize	-10.7612
▁1904	-10.7617
▁fantas	-10.762
▁Depression	-10.7625
▁drum	-10.7629
▁queen	-10.7636
▁Are	-10.764
▁1870	-10.7645
▁Season	-10.7645
▁mayor	-10.7652
▁loose	-10.7652
▁Bros	-10.7665
▁temporari	-10.7668
▁guitarist	-10.7671
▁plus	-10.7672
▁Mitchell	-10.7672
▁newspapers	-10.7674
▁purposes	-10.7679
▁Persian	-10.7679
▁Harvey	-10.7688
▁wicket	-10.7688
▁wins	-10.7695
▁solution	-10.7696
▁bat	-10.7697
▁proper	-10.7699
▁realiz	-10.7713
▁expensive	-10.7715
X	-10.772
▁nav	-10.7722
▁Week	-10.7727
▁Ridge	-10.7728
▁cult	-10.7734
▁jazz	-10.7735
▁Bach	-10.7736
▁strengthen	-10.7736
▁Championships	-10.7736
▁wreck	-10.7743
▁sees	-10.7744
▁brick	-10.7747
▁administrative	-10.7747
▁Gen	-10.7748
ions	-10.7748
van	-10.775
▁artwork	-10.7757
▁radical	-10.7759
ona	-10.776
▁interesting	-10.7763
▁permitt	-10.7767
▁dozen	-10.7768
▁drove	-10.7779
▁Philippines	-10.7782
▁familiar	-10.7784
▁Ali	-10.7788
▁Report	-10.7792
qui	-10.7792
▁mine	-10.7795
▁investigate	-10.7801
▁Critics	-10.7804
▁measured	-10.7805
▁publicly	-10.7807
▁initiat	-10.7808
▁Business	-10.7811
▁Cuba	-10.7812
▁Near	-10.7814
▁degrees	-10.7825
▁Sh	-10.7826
▁Dragon	-10.7826
▁bid	-10.7827
tion	-10.7842
ular	-10.7848
▁Take	-10.7854
▁bronze	-10.7855
stream	-10.7859
▁Wild	-10.7862
▁disorder	-10.7863
▁cancelled	-10.7863
▁halt	-10.7864
▁Cook	-10.7865
▁meat	-10.7865
▁08	-10.7865
▁strict	-10.7867
▁inhabitant	-10.7868
▁regime	-10.7868
▁parish	-10.7871
▁DC	-10.7872
▁alcohol	-10.7876
▁abuse	-10.7877
▁coverage	-10.7878
▁values	-10.7882
▁rebuil	-10.7891
▁characteriz	-10.7892
ix	-10.7892
▁enabl	-10.7894
▁revolt	-10.7895
▁r	-10.7897
▁runner	-10.7898
▁allie	-10.7898
▁helping	-10.79
▁Ram	-10.7903
▁clock	-10.7908
▁fled	-10.7914
▁craft	-10.7918
▁defender	-10.7922
itt	-10.7923
▁monster	-10.7924
▁racing	-10.7925
▁rising	-10.7935
▁minimal	-10.7936
ik	-10.7939
▁Forces	-10.7939
▁Gun	-10.7944
ile	-10.7944
▁mechanism	-10.7944
▁render	-10.7945
▁behaviour	-10.7952
▁ownership	-10.7953
▁application	-10.7953
▁practical	-10.7957
▁Arizona	-10.796
▁cousin	-10.7968
▁songwriter	-10.7969
▁exhibition	-10.7972
▁Files	-10.7979
▁Bureau	-10.7981
▁repairs	-10.7983
▁feelings	-10.7984
▁organisation	-10.7984
▁rebellion	-10.7985
▁pointed	-10.7987
▁ruling	-10.7989
▁satellite	-10.799
▁Dylan	-10.7993
▁09	-10.7993
▁absolute	-10.7997
▁colonie	-10.7998
▁associate	-10.7999
▁villain	-10.8011
▁Athletic	-10.8017
▁Tokyo	-10.8017
▁string	-10.8018
gar	-10.8022
▁Base	-10.8031
▁reward	-10.8032
▁Indies	-10.8042
▁representation	-10.8044
▁waves	-10.8044
WC	-10.8051
▁recordings	-10.8058
▁typhoon	-10.8058
▁Wars	-10.8063
▁bell	-10.8063
▁Sony	-10.8065
▁conversion	-10.8066
▁vari	-10.8072
▁assists	-10.8073
ff	-10.8076
▁predecessor	-10.8079
▁Mint	-10.808
▁willing	-10.8084
▁adventure	-10.8084
fi	-10.8087
▁Nine	-10.8101
ranging	-10.8106
▁flagship	-10.8109
▁tribes	-10.811
▁respond	-10.8112
▁Victor	-10.8114
▁surger	-10.8123
az	-10.8123
ena	-10.8125
▁Tar	-10.8129
yn	-10.8133
▁Tag	-10.8136
▁prize	-10.8138
▁prett	-10.814
▁Oklahoma	-10.814
▁Murphy	-10.8141
▁reinforcement	-10.8145
▁remnants	-10.8155
▁Delaware	-10.8161
▁Album	-10.8162
ball	-10.8163
▁shall	-10.8166
▁thinking	-10.8167
▁Eve	-10.8168
work	-10.8175
▁Such	-10.8177
▁legislature	-10.8178
▁functions	-10.8178
▁earning	-10.8184
▁Bus	-10.8186
▁Ya	-10.8186
▁chapel	-10.8187
▁Federation	-10.819
▁gust	-10.8194
▁embark	-10.8194
ella	-10.8195
▁flee	-10.8196
▁perceiv	-10.8198
ep	-10.8198
▁reverse	-10.8201
car	-10.8201
▁quiet	-10.8211
▁dominant	-10.8213
▁Switzerland	-10.8215
▁console	-10.8216
▁83	-10.8218
▁marine	-10.8218
▁obvious	-10.8219
▁cancel	-10.8219
▁sight	-10.822
▁Prize	-10.8224
▁basin	-10.8228
▁sing	-10.8228
▁Rico	-10.8231
▁dis	-10.8233
▁Glen	-10.8234
sis	-10.8234
▁god	-10.8237
▁musician	-10.8242
▁excellent	-10.8245
▁Broadway	-10.8245
bridge	-10.8246
▁shield	-10.8252
▁frigate	-10.8253
▁universal	-10.8253
▁panel	-10.8254
▁Personal	-10.8262
▁shells	-10.8264
▁manufacture	-10.8265
▁playoffs	-10.8268
▁1901	-10.8271
▁contributions	-10.8273
▁announcement	-10.8274
▁spore	-10.8274
ram	-10.8281
isation	-10.8283
▁Blues	-10.8285
▁Juan	-10.8293
▁VII	-10.8294
▁quarterback	-10.8295
▁Call	-10.8301
▁subspecies	-10.8307
▁Iraq	-10.8311
▁storage	-10.8316
▁Baker	-10.8317
▁ABC	-10.8317
▁justice	-10.8321
▁Soul	-10.8322
▁par	-10.8328
▁concentrat	-10.8328
▁institutions	-10.8336
▁suggestion	-10.834
▁Hard	-10.8343
▁bann	-10.8344
▁impression	-10.8346
▁battles	-10.8354
▁warship	-10.8358
▁1903	-10.8359
▁settler	-10.836
▁Baby	-10.8361
▁Win	-10.8366
▁Shakespeare	-10.837
▁Leslie	-10.8371
▁apply	-10.8371
▁1902	-10.8372
▁striking	-10.8375
▁Owen	-10.8384
▁Mad	-10.839
▁legac	-10.839
▁useful	-10.8393
▁compliment	-10.8396
ility	-10.8398
▁neighbor	-10.84
ring	-10.8401
▁Bull	-10.8408
▁vast	-10.8409
▁riders	-10.8411
▁Perry	-10.8416
▁theatrical	-10.8417
▁stole	-10.8422
lock	-10.8426
▁Par	-10.8427
▁baby	-10.843
▁yield	-10.843
▁Amy	-10.8431
▁altitude	-10.8431
▁Sand	-10.8433
▁marks	-10.8434
▁ensu	-10.8434
▁Nixon	-10.8434
hill	-10.8439
▁Fl	-10.8439
▁patterns	-10.844
shi	-10.8443
▁Dick	-10.8444
hood	-10.8444
▁Well	-10.8447
▁cable	-10.845
▁plate	-10.8451
▁objective	-10.8453
▁feud	-10.8454
▁Atlanta	-10.846
▁biographer	-10.8462
▁explains	-10.8465
▁Villa	-10.8467
▁liberal	-10.8468
if	-10.8473
ric	-10.8474
▁Ward	-10.8475
▁Kurt	-10.8475
▁Actor	-10.8477
▁urge	-10.8479
uri	-10.8479
▁arts	-10.8482
▁Jonatha	-10.8484
stein	-10.8485
▁Denmark	-10.8486
▁hunt	-10.8486
▁emotion	-10.8493
▁sequences	-10.8496
▁Th	-10.8501
▁Know	-10.8505
▁portrayal	-10.8505
▁reconnaissance	-10.8511
▁Baseball	-10.8511
▁Rihanna	-10.8516
▁farmer	-10.8516
▁mountains	-10.852
▁Trust	-10.852
▁fixed	-10.8522
▁dubb	-10.8525
▁EP	-10.8527
▁circumstances	-10.8527
▁Friday	-10.8533
ap	-10.8541
dding	-10.8543
▁leak	-10.8546
▁Yo	-10.8548
▁Jacob	-10.8548
▁Hudson	-10.855
▁incorporate	-10.8559
▁Johnny	-10.8562
▁Abbey	-10.8563
▁ban	-10.8566
▁ritual	-10.8567
▁rounds	-10.8571
▁displac	-10.8572
▁expression	-10.8574
▁Karl	-10.8578
▁Mother	-10.8579
▁sq	-10.858
▁friendship	-10.8582
▁Gray	-10.8583
▁expect	-10.8584
▁customer	-10.8587
▁Express	-10.8589
▁tissue	-10.8589
▁conventional	-10.8589
her	-10.859
▁Campaign	-10.8593
▁holiday	-10.8593
our	-10.86
▁investigat	-10.8606
▁offense	-10.8607
▁prepar	-10.8614
ada	-10.8616
▁05	-10.8617
▁Gate	-10.8621
▁elevation	-10.8621
▁mature	-10.8622
▁payment	-10.8632
▁examples	-10.8636
▁Arnold	-10.8645
▁Communist	-10.8647
▁alive	-10.8659
▁Cole	-10.8661
▁revis	-10.8662
▁Snow	-10.8663
▁refuse	-10.8665
▁subjects	-10.8668
▁Kar	-10.8668
▁Railroad	-10.8671
▁delegate	-10.8671
▁suitabl	-10.8672
▁Shaw	-10.8675
▁merg	-10.8676
▁electron	-10.8681
▁remarked	-10.8682
▁Obama	-10.8685
▁Jimmy	-10.8689
▁represents	-10.869
▁VI	-10.8692
▁cinema	-10.8693
▁net	-10.8696
ex	-10.8703
▁advis	-10.8704
▁Keith	-10.8705
ps	-10.8706
▁105	-10.8707
row	-10.8709
▁impos	-10.871
▁Potter	-10.8716
▁employ	-10.8717
▁Wayne	-10.8717
▁Get	-10.872
▁bases	-10.8721
▁warn	-10.873
▁Reserve	-10.8733
▁ignor	-10.8738
ill	-10.874
▁punk	-10.874
▁Rachel	-10.8742
▁exposure	-10.8742
wall	-10.8744
▁Natural	-10.8745
▁Internet	-10.8746
▁pioneer	-10.8746
▁readers	-10.8746
je	-10.8747
▁Vi	-10.8747
▁Inc	-10.8748
▁soldier	-10.8751
▁donat	-10.8752
qualified	-10.8755
fallen	-10.8759
▁flights	-10.876
ative	-10.8762
▁Val	-10.8763
▁mainland	-10.8764
▁hook	-10.8766
pp	-10.8767
▁cook	-10.8769
▁Pearl	-10.877
▁cutting	-10.8773
▁tune	-10.8773
▁tight	-10.8776
▁06	-10.8782
▁Hugh	-10.8782
▁external	-10.8785
▁Tracy	-10.879
▁duo	-10.8793
var	-10.8794
▁taste	-10.8795
▁poems	-10.8797
▁Dam	-10.8798
▁strain	-10.8801
▁commenc	-10.8802
▁fur	-10.8806
▁goods	-10.8812
▁Eventual	-10.8812
▁mines	-10.8816
▁meter	-10.8818
▁empire	-10.8821
▁Peace	-10.8821
lu	-10.8824
▁strengthened	-10.8825
▁Birmingham	-10.8825
▁Impact	-10.8825
▁Ever	-10.8826
oid	-10.8828
▁dancing	-10.883
▁mobile	-10.8831
▁Rain	-10.8834
▁routine	-10.8834
▁evacuat	-10.8839
▁Universal	-10.8843
▁Drive	-10.8846
▁resist	-10.8846
▁Belgian	-10.8847
▁conversation	-10.8852
▁demolished	-10.8852
▁expense	-10.8856
▁Yankees	-10.8857
▁casting	-10.8857
▁reduction	-10.8857
▁experimental	-10.8858
iv	-10.8859
▁kW	-10.886
▁nominations	-10.886
worth	-10.8864
▁compound	-10.8865
▁Defence	-10.8865
▁Leonard	-10.8866
▁uncle	-10.8871
▁constitutional	-10.8872
▁artificial	-10.8879
▁culminat	-10.8879
▁constitution	-10.8882
rk	-10.8883
▁McCartney	-10.8887
▁Morrison	-10.89
▁Phoenix	-10.8901
▁attraction	-10.8902
▁plain	-10.8908
▁Ear	-10.8909
▁restore	-10.8909
▁coup	-10.891
fer	-10.8911
▁Type	-10.8919
▁researcher	-10.8919
▁Box	-10.892
▁Bel	-10.8925
▁bearing	-10.8926
▁Classic	-10.8927
▁Social	-10.893
▁harm	-10.8932
ag	-10.8935
▁Fi	-10.8935
▁Ph	-10.894
og	-10.8942
▁factory	-10.8942
ivity	-10.8954
▁Boat	-10.8956
▁waste	-10.8958
▁sitting	-10.8959
▁Secret	-10.8962
▁Bobby	-10.8963
▁renew	-10.8963
▁Connecticut	-10.8964
▁oversea	-10.8964
▁depiction	-10.8965
▁crest	-10.8966
▁Our	-10.8967
▁Ja	-10.897
▁favourite	-10.897
▁infection	-10.8971
illa	-10.8971
▁Madagascar	-10.8973
▁cat	-10.8973
▁acoustic	-10.8977
▁delivery	-10.8978
▁secretary	-10.898
▁manga	-10.8985
▁Lost	-10.8987
▁Todd	-10.8987
▁roots	-10.8994
▁Mid	-10.8995
▁electrical	-10.9004
▁shirt	-10.9009
▁knee	-10.9013
▁Lion	-10.9017
ori	-10.9018
▁deliberate	-10.9018
▁Die	-10.9023
▁backing	-10.9025
▁inherit	-10.903
▁Ontario	-10.9031
▁Champion	-10.9032
▁stores	-10.9036
gan	-10.904
▁discussion	-10.9043
▁07	-10.9046
ec	-10.905
▁Canterbury	-10.9058
▁aerial	-10.9059
▁withdrawal	-10.906
▁drugs	-10.906
▁neutral	-10.9062
▁guid	-10.9066
▁placing	-10.9067
▁liquid	-10.907
▁Sal	-10.9071
▁Plan	-10.9071
▁react	-10.9072
▁Sar	-10.9072
▁removal	-10.9072
▁Maya	-10.9076
sha	-10.9076
▁Stan	-10.9077
▁Jupiter	-10.9081
▁Still	-10.9084
▁Sp	-10.9085
▁Community	-10.9086
▁l	-10.9086
▁funn	-10.9089
▁decorat	-10.9093
rose	-10.9094
▁kid	-10.9094
▁Fleming	-10.9095
▁magic	-10.9095
▁diamond	-10.9099
▁strategic	-10.91
▁imperial	-10.91
▁mechanical	-10.9107
EFA	-10.9112
▁license	-10.9113
▁Convention	-10.9113
▁Bernard	-10.9118
▁solar	-10.9119
▁Oak	-10.912
tu	-10.9121
▁Israeli	-10.9122
▁Napoleon	-10.9123
▁Foreign	-10.9131
▁pitcher	-10.9133
31	-10.9137
▁specimen	-10.914
▁Ultimate	-10.914
▁articles	-10.9142
▁Fu	-10.9143
▁bone	-10.9151
▁et	-10.9162
▁tube	-10.9162
▁authoriz	-10.9163
▁undergo	-10.917
▁translat	-10.9175
▁Penn	-10.918
mat	-10.9182
▁compil	-10.9185
▁revolution	-10.9185
▁Mrs	-10.9193
▁underst	-10.9199
▁Rights	-10.92
▁Pa	-10.9203
▁inhabit	-10.9204
▁Windows	-10.9204
▁Conservative	-10.9204
▁gray	-10.9215
▁grass	-10.922
▁amateur	-10.9223
▁decay	-10.9223
▁Greg	-10.9229
▁explor	-10.9234
▁Victorian	-10.9234
player	-10.9237
▁translation	-10.9237
▁garner	-10.9237
▁aftermath	-10.9238
▁jurisdiction	-10.9246
▁Titan	-10.9246
▁cave	-10.9249
▁Vancouver	-10.9251
▁Boe	-10.9251
▁battalions	-10.9257
▁parliament	-10.9262
▁imp	-10.9263
▁publishing	-10.9268
▁membership	-10.9269
▁fame	-10.927
ib	-10.9283
▁Portugues	-10.9297
▁wheel	-10.9298
▁rivers	-10.9298
▁covers	-10.93
▁Tan	-10.9302
ala	-10.9304
▁Marvel	-10.9309
▁lover	-10.931
▁Gary	-10.9315
▁trailer	-10.9315
▁suppress	-10.9315
▁anchor	-10.9322
▁Administration	-10.9325
▁TNA	-10.9328
▁proportion	-10.9328
ated	-10.9333
▁planets	-10.9339
▁tenure	-10.9347
▁rap	-10.935
▁Works	-10.9352
ft	-10.9354
▁Triple	-10.9355
▁Village	-10.9356
▁Grove	-10.9359
▁racial	-10.936
▁encourage	-10.9374
▁listen	-10.9375
nt	-10.9377
▁collaps	-10.9377
▁steps	-10.9379
▁compounds	-10.9381
▁Hardy	-10.9381
▁Alice	-10.9385
▁Br	-10.9385
▁petition	-10.939
▁125	-10.9392
▁bond	-10.9394
▁battlecruiser	-10.9395
▁Local	-10.9395
▁Dog	-10.9397
▁Trophy	-10.94
▁exceed	-10.9401
▁characteristic	-10.9402
▁bombs	-10.9403
▁intercept	-10.9405
▁invad	-10.9405
▁pages	-10.9406
▁sang	-10.9407
▁blocks	-10.941
▁examin	-10.9413
▁putting	-10.9415
of	-10.9418
▁watershed	-10.9419
▁Fish	-10.9421
▁exploit	-10.9426
▁Dwight	-10.9428
▁1893	-10.9429
▁Ku	-10.943
▁competitive	-10.9432
▁1860	-10.9434
▁accomplish	-10.9436
▁Trail	-10.9441
▁Off	-10.9444
▁sisters	-10.9447
▁improvements	-10.9448
▁vs	-10.9449
▁mushroom	-10.9451
▁architectural	-10.9451
▁upgrade	-10.9453
▁chase	-10.9454
▁relocat	-10.9455
▁substitute	-10.9455
▁Hampshire	-10.9461
▁mill	-10.9461
ement	-10.9461
▁wine	-10.9467
▁Deep	-10.9467
▁trigger	-10.947
▁intervention	-10.947
▁Oliver	-10.9471
▁1896	-10.9474
utstanding	-10.9475
▁supplement	-10.948
▁insects	-10.9481
▁birthday	-10.9482
▁matters	-10.9483
▁intellectual	-10.9484
▁provincial	-10.9484
▁Ste	-10.9486
▁guarantee	-10.9489
▁fault	-10.9489
▁disturbance	-10.949
▁density	-10.9492
▁Edinburgh	-10.9499
▁Alaska	-10.9499
▁hydrogen	-10.9503
▁Professor	-10.9508
▁Rand	-10.951
▁Marge	-10.9513
▁Collins	-10.9513
▁NCAA	-10.9513
▁dispatch	-10.9518
▁explosive	-10.9518
▁tonne	-10.9521
▁identical	-10.9522
▁educational	-10.9523
▁Armenian	-10.9526
▁Pakistan	-10.9529
▁Bal	-10.9532
▁pleas	-10.9534
tre	-10.9537
▁shallow	-10.9537
▁anticipat	-10.9538
vin	-10.9542
▁feeding	-10.9553
▁Grey	-10.9557
▁Lang	-10.9562
▁ratio	-10.9562
▁sung	-10.9564
▁banks	-10.9565
▁creek	-10.9565
▁voyage	-10.9565
▁muscle	-10.9565
▁heading	-10.9572
▁examination	-10.9572
▁walking	-10.9572
war	-10.9576
▁cannon	-10.9579
▁parody	-10.9579
▁1898	-10.9581
▁neighbour	-10.9584
▁duration	-10.959
▁expert	-10.9594
▁Trade	-10.9595
▁terrain	-10.9599
▁promis	-10.9602
▁Dor	-10.9611
▁bay	-10.9612
▁Province	-10.9613
▁seized	-10.9616
▁condemn	-10.9616
▁automatic	-10.962
min	-10.9621
▁medicine	-10.9623
▁List	-10.9623
▁Stock	-10.9625
▁photograph	-10.9627
▁streak	-10.9627
▁cartoon	-10.9628
▁sav	-10.9634
▁bones	-10.9639
▁Historical	-10.9643
▁assembly	-10.9644
▁export	-10.9644
▁Champions	-10.9646
▁trough	-10.9657
▁promotional	-10.9658
▁rifle	-10.9661
▁Argentina	-10.9666
▁exclusive	-10.967
▁trend	-10.9671
▁inde	-10.9671
▁Virgin	-10.9672
▁Thos	-10.9674
▁elaborate	-10.9676
ique	-10.968
▁Yorkshire	-10.9686
▁Wii	-10.9686
▁accidental	-10.9687
▁Bur	-10.9691
▁cup	-10.9692
rus	-10.9693
▁wage	-10.9694
▁jury	-10.9695
▁mistake	-10.9695
▁JT	-10.9696
ries	-10.9699
▁advertising	-10.97
▁repeat	-10.97
▁Performance	-10.9704
▁requires	-10.9706
▁ceased	-10.9709
▁assess	-10.9712
▁Lloyd	-10.9714
▁unclear	-10.9716
▁350	-10.9719
▁flower	-10.972
▁magnitude	-10.9724
▁Craig	-10.9724
▁fortification	-10.9724
▁tubes	-10.9725
▁output	-10.9732
ock	-10.9735
▁Hor	-10.9743
▁software	-10.9746
▁float	-10.9746
ize	-10.9749
che	-10.9754
aj	-10.9755
▁Rio	-10.9755
▁Ga	-10.976
▁Jerry	-10.9763
▁Overall	-10.9764
▁progressive	-10.9765
▁Globe	-10.9772
▁employment	-10.9773
▁recall	-10.9775
▁distant	-10.9777
▁drummer	-10.9778
▁succession	-10.9778
▁swimm	-10.9778
▁repli	-10.9779
▁Side	-10.978
▁wake	-10.9781
▁arrangements	-10.9781
cation	-10.9781
hitting	-10.9782
▁Turner	-10.9782
▁predominant	-10.9788
▁Johnston	-10.9788
▁stick	-10.979
▁Mission	-10.979
▁blind	-10.9792
▁1899	-10.9794
▁contribution	-10.9795
▁explanation	-10.9797
▁origins	-10.9806
▁commitment	-10.9807
▁arch	-10.9809
▁mate	-10.9809
▁Ve	-10.981
▁defences	-10.9811
aki	-10.9812
▁phrase	-10.9815
▁Subsequent	-10.9816
▁worship	-10.982
▁Steven	-10.9821
▁da	-10.9822
▁approaching	-10.9826
▁mirror	-10.9826
▁jobs	-10.9827
▁Bennett	-10.9828
ily	-10.9829
ane	-10.983
▁sky	-10.9832
▁remark	-10.9834
▁photo	-10.9836
▁commentary	-10.9836
▁biograph	-10.9836
▁Celtic	-10.9836
▁proclaim	-10.9837
▁imagery	-10.984
▁Boys	-10.9841
▁reluctant	-10.9844
▁drinking	-10.9845
▁Swift	-10.9846
▁Finland	-10.9851
▁prohibit	-10.9852
▁improvement	-10.9857
▁lawsuit	-10.9861
▁preserve	-10.9861
▁liner	-10.9864
▁Sub	-10.9868
▁ruler	-10.9868
▁vary	-10.9869
▁Kate	-10.9873
▁monaster	-10.9875
ano	-10.9875
▁electricity	-10.9877
▁structural	-10.9882
▁Brothers	-10.9882
▁hole	-10.9888
▁directors	-10.989
▁Voice	-10.9891
▁Bird	-10.9892
▁destroyer	-10.9894
yan	-10.9896
era	-10.9899
▁Norfolk	-10.99
▁Hi	-10.9904
▁releases	-10.9906
▁Anti	-10.9907
▁sending	-10.9908
▁Mountains	-10.9915
▁Grace	-10.9916
▁branches	-10.9916
▁Mayor	-10.992
nautical	-10.9921
▁burial	-10.9923
▁Judge	-10.9925
▁cabinet	-10.9925
▁Burton	-10.9928
▁wire	-10.9928
▁Howe	-10.9929
▁hid	-10.993
▁prospect	-10.9932
▁Queensland	-10.9935
▁Heritage	-10.9939
enberg	-10.9943
▁activist	-10.9943
▁failing	-10.9943
▁publications	-10.9943
▁Helen	-10.9944
▁presentation	-10.9949
▁Dar	-10.9963
▁radiation	-10.9965
▁pale	-10.9971
▁Hawaii	-10.9972
bra	-10.9972
▁Je	-10.9972
▁eagle	-10.9974
▁turbine	-10.9974
▁Nicholas	-10.9974
▁Che	-10.9974
▁mask	-10.9975
▁Barry	-10.9979
▁Hills	-10.9981
▁instrument	-10.9985
▁Jam	-10.9986
▁Mason	-10.999
▁divorce	-10.9993
▁Brazilian	-10.9996
▁tip	-10.9999
▁Girls	-11.0001
▁heir	-11.0003
ama	-11.0003
▁precipitation	-11.0004
▁atomic	-11.0005
▁dive	-11.0006
▁pump	-11.0009
▁Blu	-11.0018
OK	-11.0018
▁orient	-11.0019
▁reinforc	-11.0023
▁essay	-11.0024
▁1850	-11.0025
▁Vincent	-11.0029
ture	-11.0032
▁Catherine	-11.0034
▁athletic	-11.0034
▁gender	-11.0034
▁Davies	-11.0036
▁Syria	-11.0036
▁trans	-11.0039
▁pursuit	-11.004
▁Guinea	-11.004
▁Medical	-11.004
▁eastward	-11.0047
anime	-11.0047
▁demonstrate	-11.0048
▁Emmy	-11.0049
▁exclusively	-11.0052
▁attending	-11.0057
▁root	-11.0059
tes	-11.0062
ator	-11.0062
▁Harbor	-11.0062
▁photographs	-11.0063
kh	-11.0064
▁loved	-11.0068
▁Sel	-11.0068
▁04	-11.0069
▁grave	-11.0071
▁Kh	-11.0071
ble	-11.0073
▁dam	-11.0076
▁Abu	-11.0077
▁signature	-11.008
▁eligib	-11.0084
▁virus	-11.0092
▁leads	-11.0095
▁inscription	-11.0097
ire	-11.0099
▁Next	-11.0099
▁Sega	-11.0099
▁Mon	-11.01
▁Euro	-11.0104
▁videos	-11.0105
▁Ban	-11.0107
▁Kr	-11.0108
▁Hal	-11.0111
▁Transportation	-11.0111
▁accommodate	-11.0111
▁Rangers	-11.0115
▁rent	-11.0118
▁Mor	-11.0119
▁Common	-11.0121
▁Hughes	-11.0124
burn	-11.0124
▁beaut	-11.0126
idae	-11.0133
▁Darwin	-11.0135
▁Prix	-11.014
▁sheet	-11.0146
▁con	-11.0147
▁Credits	-11.015
▁1897	-11.0151
▁Yellow	-11.016
▁Beginning	-11.016
▁serial	-11.016
▁bare	-11.0164
▁volumes	-11.0164
▁contribute	-11.0165
▁lyrical	-11.0165
▁Farm	-11.0165
▁dogs	-11.0166
▁crystal	-11.0168
▁Magic	-11.0168
▁champions	-11.0169
▁Oslo	-11.017
▁copper	-11.0171
say	-11.0171
▁survival	-11.0172
ware	-11.0176
▁Kane	-11.018
▁frequency	-11.0182
▁Kenne	-11.0182
▁Lin	-11.0183
▁Training	-11.0185
▁Harvard	-11.0185
▁Cameron	-11.0195
burg	-11.0195
▁discipline	-11.0199
▁crews	-11.02
▁legislative	-11.02
▁conquer	-11.0205
▁Shin	-11.0205
▁collective	-11.0209
▁demo	-11.0212
▁celebrate	-11.0213
▁shut	-11.0217
wick	-11.0218
▁smoke	-11.0221
▁Swiss	-11.0222
▁valuable	-11.0223
▁sixteen	-11.0225
▁sugar	-11.0226
▁Micros	-11.0227
▁respective	-11.0227
▁Edwards	-11.0236
▁Moscow	-11.0236
▁volunteer	-11.0236
▁conceived	-11.0238
▁Officer	-11.0243
rated	-11.0243
▁Cho	-11.0245
▁Susan	-11.0246
▁Roll	-11.0246
▁Brit	-11.0248
▁commentator	-11.0251
▁Indonesia	-11.0253
▁initiative	-11.0254
▁Pittsburgh	-11.0256
▁Gallery	-11.0261
sch	-11.0263
▁Child	-11.0264
▁airfield	-11.0265
▁voting	-11.0267
▁chord	-11.0267
▁representatives	-11.0271
ris	-11.0276
▁Mil	-11.0277
▁Kan	-11.0278
▁anger	-11.0279
▁sp	-11.0281
▁Protestant	-11.0282
▁ports	-11.0283
▁Luke	-11.0284
▁Antonio	-11.0287
▁summit	-11.0288
▁Female	-11.0292
▁steep	-11.0292
96	-11.0294
▁x	-11.0301
▁servant	-11.0303
▁Orange	-11.0308
ftermath	-11.0312
▁recognize	-11.0313
▁Mal	-11.0316
▁dealing	-11.0318
rum	-11.0322
▁spoken	-11.0323
▁confidence	-11.0328
▁Junior	-11.0328
▁Indonesian	-11.0332
rich	-11.0336
▁slaver	-11.0338
▁autumn	-11.0338
▁celebrit	-11.0338
▁Den	-11.0339
▁Terry	-11.0339
▁Neil	-11.0342
▁affiliate	-11.0343
▁shaft	-11.0344
▁Mer	-11.0345
▁Tree	-11.0347
▁laborator	-11.0351
▁photography	-11.0351
▁boss	-11.0363
▁victim	-11.0363
▁recommendation	-11.0364
▁Wallace	-11.0364
▁Ruth	-11.037
▁sacrifice	-11.0372
▁humor	-11.0373
▁fate	-11.0376
▁attorney	-11.038
▁scout	-11.038
▁urani	-11.0382
▁Upper	-11.0384
▁Bath	-11.0384
▁stuff	-11.0385
▁Section	-11.0385
ula	-11.0385
▁Edition	-11.0386
af	-11.039
▁Bryan	-11.0397
uc	-11.0398
▁lists	-11.0399
▁tactics	-11.0404
▁evacuation	-11.0409
▁explicit	-11.0411
partially	-11.0413
▁Formation	-11.0418
▁Bu	-11.0418
▁institution	-11.0421
▁melody	-11.0421
▁flowers	-11.0422
▁Fe	-11.0424
▁roadway	-11.0426
▁inclusion	-11.0426
▁Cro	-11.0427
▁burned	-11.0428
▁None	-11.043
▁Hope	-11.0439
▁Defense	-11.0442
ther	-11.0443
▁Jefferson	-11.0448
▁patron	-11.0457
▁Sen	-11.0457
▁jaw	-11.0458
▁careful	-11.0459
▁minority	-11.0462
▁Description	-11.0463
▁revolutionar	-11.0464
▁Pink	-11.0471
▁Books	-11.0471
▁Transport	-11.0472
▁Liz	-11.0472
▁Studio	-11.0476
fe	-11.048
▁occupy	-11.0489
MA	-11.0489
▁steal	-11.049
▁sweet	-11.0494
▁programming	-11.0494
▁forecast	-11.0495
▁conservation	-11.0498
▁assume	-11.0501
▁170	-11.0504
▁harbour	-11.0505
▁Pu	-11.0506
▁tag	-11.0507
▁fossil	-11.0509
▁Sheffield	-11.051
▁demonstration	-11.0511
▁presum	-11.0516
▁Ralph	-11.0519
▁fundamental	-11.0526
▁Larry	-11.0526
▁Charts	-11.0527
▁Nova	-11.0528
▁Eight	-11.0529
▁burning	-11.0537
▁Allie	-11.054
▁jet	-11.0547
▁devices	-11.0548
▁collaborat	-11.055
▁Security	-11.0551
▁1895	-11.0553
▁Son	-11.0554
play	-11.0557
▁mini	-11.0557
▁users	-11.0558
▁ma	-11.0563
CE	-11.0566
▁package	-11.0571
▁volcano	-11.0573
ogether	-11.0573
▁Mont	-11.0573
▁fold	-11.0574
▁tape	-11.0577
▁compromise	-11.0578
▁puzzle	-11.0579
▁recurr	-11.0581
▁Clay	-11.0582
▁se	-11.0582
▁Thing	-11.0582
▁riding	-11.0585
▁Dallas	-11.0589
▁Cyrus	-11.0589
▁Work	-11.0591
▁Herald	-11.06
▁mail	-11.0602
▁Zero	-11.0604
▁warfare	-11.0605
▁warrior	-11.061
27	-11.0612
bert	-11.0614
▁fisher	-11.0616
▁airline	-11.0617
▁Sin	-11.062
▁Unit	-11.0623
▁admir	-11.0624
▁uncertain	-11.0625
▁bombardment	-11.0627
▁rivalry	-11.063
▁Ab	-11.063
▁convey	-11.0631
▁Collection	-11.0632
▁Malaysia	-11.0633
▁gear	-11.0634
▁consult	-11.0635
▁bi	-11.0636
▁administer	-11.0637
▁Hunt	-11.0638
zi	-11.0639
▁participation	-11.0639
▁Amendment	-11.0642
▁samples	-11.0645
▁modification	-11.0647
▁Dun	-11.0647
▁Austin	-11.0652
▁Beck	-11.0657
▁Room	-11.0657
▁Sweet	-11.0658
▁fung	-11.066
▁Picture	-11.0661
▁inflict	-11.0663
▁Musical	-11.0668
▁fatal	-11.0669
▁girlfriend	-11.0679
▁remote	-11.0679
ged	-11.068
▁Clarke	-11.0687
qu	-11.0687
▁FBI	-11.069
▁cruise	-11.0698
▁tempo	-11.0703
▁transportation	-11.0704
▁imprison	-11.0705
▁Fund	-11.0706
▁brilliant	-11.0711
ora	-11.0716
▁Chelsea	-11.0716
▁Parsons	-11.0719
▁tale	-11.072
▁papers	-11.0722
▁Woman	-11.0723
▁kiss	-11.0725
▁widow	-11.0727
▁le	-11.0729
▁dynamic	-11.073
▁Wilhelm	-11.0731
▁disband	-11.0732
▁Fran	-11.0732
mm	-11.0734
20	-11.0736
▁li	-11.0744
▁salary	-11.0749
▁Danish	-11.0752
▁persuad	-11.0753
▁Armstrong	-11.0754
▁03	-11.0755
ith	-11.0757
ken	-11.0758
▁educat	-11.0758
lf	-11.0759
▁grandfather	-11.0759
▁principle	-11.0761
▁expectation	-11.0762
▁onward	-11.077
down	-11.0778
▁Quebec	-11.0781
▁Cathedral	-11.0781
▁Cast	-11.0784
▁Metro	-11.0787
▁noise	-11.079
idi	-11.079
▁significan	-11.0793
▁habit	-11.0795
▁fortress	-11.0798
tis	-11.08
▁playoff	-11.0803
▁advocate	-11.0807
▁web	-11.0807
▁dinosaur	-11.0808
ight	-11.0814
dom	-11.0817
▁Fighter	-11.0823
▁Apollo	-11.0823
▁Male	-11.0824
▁Cultural	-11.0824
▁Place	-11.0824
▁diverse	-11.0825
▁wrestler	-11.0832
▁pen	-11.0833
▁deteriorat	-11.0839
▁Fourth	-11.084
▁revival	-11.084
▁mytholog	-11.0842
▁carrie	-11.0844
▁sat	-11.0844
du	-11.0844
▁vulnerable	-11.0846
▁Rap	-11.0848
▁recovery	-11.0848
19	-11.0849
▁curv	-11.0849
Z	-11.085
▁sculpture	-11.0851
▁dinner	-11.0851
▁para	-11.0853
▁principles	-11.0855
▁Carr	-11.0857
▁advertisement	-11.0857
▁Half	-11.086
▁Spider	-11.0862
▁instruct	-11.0866
mont	-11.0866
▁orange	-11.0869
▁01	-11.0871
▁Kaiser	-11.0873
tan	-11.0875
▁Serbian	-11.0875
▁Authority	-11.0875
▁Vol	-11.0878
▁confirm	-11.0883
▁Movie	-11.0884
▁beating	-11.0884
▁platforms	-11.0886
▁Buffalo	-11.0889
▁conquest	-11.0889
ua	-11.0892
▁Gre	-11.0898
▁mixture	-11.09
▁Tyler	-11.0901
▁exclud	-11.0902
▁variable	-11.0905
▁Yu	-11.0909
▁Orleans	-11.0911
▁statistics	-11.0911
▁Pictures	-11.0913
▁Agency	-11.0913
▁Pam	-11.0913
▁descent	-11.0916
▁Salt	-11.0917
▁Reform	-11.0928
▁efficient	-11.0933
▁Utah	-11.0933
▁terminal	-11.0933
tro	-11.0934
▁Cricket	-11.0935
▁Sha	-11.0935
▁conclude	-11.0936
▁trick	-11.0936
▁Meta	-11.0937
▁unexpected	-11.0938
▁115	-11.0941
▁Guitar	-11.0941
▁rebels	-11.0944
▁opin	-11.0946
▁connections	-11.0948
▁Hans	-11.095
▁Stuart	-11.095
▁error	-11.0951
▁Mega	-11.0954
▁Minor	-11.0955
▁outcome	-11.0955
▁immun	-11.0958
▁chest	-11.0959
▁beats	-11.096
▁tribe	-11.096
▁clothes	-11.096
▁steer	-11.096
▁southeaster	-11.0961
▁requir	-11.0964
▁cathedral	-11.0966
▁upset	-11.0974
▁Stevens	-11.0984
▁Constantine	-11.0985
▁Pine	-11.0985
▁FIFA	-11.0988
▁1861	-11.099
maker	-11.0992
▁Com	-11.0992
▁Charlotte	-11.0993
▁myth	-11.0994
tte	-11.0995
▁moon	-11.0998
▁Regional	-11.0999
ovi	-11.0999
▁Past	-11.1003
▁Bat	-11.1003
▁aft	-11.1005
▁descendant	-11.1005
▁CBS	-11.1005
rmies	-11.1007
▁drift	-11.1008
▁installation	-11.1009
▁Richmond	-11.101
▁Justin	-11.1012
▁1889	-11.1012
SA	-11.1012
▁Pen	-11.1013
▁Spirit	-11.1015
▁mood	-11.1016
▁HD	-11.102
▁kilometer	-11.1021
▁Metropolitan	-11.1026
▁Sri	-11.1028
▁Hunter	-11.1031
▁Years	-11.104
▁theories	-11.1041
▁experiments	-11.1045
▁Newton	-11.1047
▁Muhammad	-11.1048
ros	-11.1054
▁1894	-11.1056
▁trapp	-11.106
▁Oh	-11.106
ug	-11.1062
▁Bulgarian	-11.1063
▁killer	-11.1067
▁pm	-11.1069
▁Stand	-11.1069
chemistry	-11.1069
▁Want	-11.107
▁resolv	-11.1073
▁illustrat	-11.1073
9	-11.1074
▁screenplay	-11.1077
▁scholarship	-11.1082
eb	-11.1085
osaurus	-11.1086
▁Executive	-11.1087
ito	-11.1092
▁Scientology	-11.1093
▁dual	-11.1095
▁physic	-11.1097
▁texts	-11.1098
▁destination	-11.1099
▁lifetime	-11.11
HL	-11.1101
▁elite	-11.1105
▁1891	-11.1105
▁quit	-11.1108
▁surge	-11.1108
▁Bible	-11.1109
▁heritage	-11.1109
▁rug	-11.111
▁diplomatic	-11.1111
▁saving	-11.1111
▁Ana	-11.1125
▁competitor	-11.1126
▁empty	-11.1126
iz	-11.1128
world	-11.1131
▁decisive	-11.1132
▁Pete	-11.1133
▁accord	-11.1136
▁Rhodes	-11.114
36	-11.1142
▁enable	-11.1144
▁nice	-11.1144
▁rejoin	-11.1148
igan	-11.1152
▁variation	-11.1154
▁YouTube	-11.1154
▁taxe	-11.1154
▁Freedom	-11.1154
▁processes	-11.1156
cast	-11.1161
▁tough	-11.1163
▁opt	-11.1166
tal	-11.1171
18	-11.1175
▁widen	-11.118
▁1000	-11.1186
iness	-11.1188
▁Ring	-11.119
▁agriculture	-11.1193
▁magazines	-11.1196
▁millimeter	-11.1199
▁confusion	-11.1199
▁movies	-11.1199
▁formula	-11.1202
▁seventeen	-11.1205
▁batt	-11.1205
▁Hand	-11.1205
▁Grade	-11.1207
▁pregnan	-11.1208
▁biological	-11.1216
▁disrupt	-11.1217
▁1892	-11.1217
▁Code	-11.1218
▁sings	-11.1221
▁dwarf	-11.1221
▁telephone	-11.1221
▁golden	-11.1222
▁sword	-11.1225
▁Come	-11.1225
▁Cardiff	-11.1227
▁barrier	-11.1227
▁markets	-11.1229
▁Typhoon	-11.1233
▁evident	-11.1233
▁Register	-11.1233
▁grain	-11.1236
▁Symphony	-11.1238
fo	-11.1241
▁devoted	-11.1242
▁Zone	-11.1248
▁Pin	-11.1249
▁scenario	-11.125
▁measurement	-11.1252
▁talks	-11.1254
▁Rod	-11.1255
▁bowler	-11.1255
▁Leo	-11.1258
▁Wells	-11.126
▁bulk	-11.126
▁skill	-11.1261
▁Conservation	-11.1267
▁Kyle	-11.1272
ois	-11.1273
▁reliev	-11.1277
▁Electric	-11.1279
Y	-11.128
▁proof	-11.128
▁precise	-11.1283
▁Control	-11.1289
▁extinct	-11.1292
▁timber	-11.1295
▁Nature	-11.1296
▁lie	-11.1296
▁asset	-11.1298
▁j	-11.13
▁Danny	-11.1302
▁lion	-11.1312
▁Burns	-11.1314
▁qualit	-11.1317
▁Orchestra	-11.1318
▁infrastructure	-11.1319
▁dimension	-11.132
▁Cavalry	-11.1323
▁Until	-11.1323
sey	-11.1326
▁communications	-11.1326
▁Sox	-11.1326
▁Tang	-11.1327
▁followers	-11.1328
▁applications	-11.1328
uff	-11.1328
▁pink	-11.1329
▁1800	-11.133
▁nose	-11.1332
▁MP	-11.1334
▁refugee	-11.1336
▁tooth	-11.1338
▁Ground	-11.1339
▁pound	-11.1342
▁rebuild	-11.1342
▁noble	-11.1344
▁Services	-11.1345
▁Marc	-11.1351
▁prince	-11.1351
▁Wisconsin	-11.1352
▁scar	-11.1354
▁poison	-11.1362
▁02	-11.1366
▁possess	-11.1369
▁Actress	-11.137
▁manuscript	-11.1373
▁Oscar	-11.1375
▁highways	-11.1375
thel	-11.1376
▁observer	-11.1378
fire	-11.138
▁Record	-11.1383
▁sailing	-11.1388
▁Wi	-11.1388
▁Rat	-11.1389
▁arena	-11.1389
▁Watch	-11.1392
▁ordinar	-11.1393
▁Jerusalem	-11.1397
hall	-11.1401
▁ca	-11.1401
▁literal	-11.1404
▁Start	-11.1405
▁resort	-11.1409
▁Airlines	-11.1409
▁impressive	-11.1411
▁tru	-11.1411
08	-11.1411
▁Shiva	-11.1414
▁peninsula	-11.1415
▁Father	-11.1421
▁Brooks	-11.143
▁retail	-11.1431
▁commenting	-11.1431
▁Montgomery	-11.1432
▁census	-11.1438
▁bats	-11.1439
▁Las	-11.1441
▁pupil	-11.1445
▁Sonic	-11.1445
lam	-11.1447
▁afford	-11.1448
▁absent	-11.1449
▁cash	-11.1452
▁gang	-11.1453
▁crack	-11.1455
▁disappoint	-11.1458
07	-11.1458
▁240	-11.146
val	-11.1462
▁scandal	-11.1465
▁clan	-11.1471
▁Isle	-11.1473
▁Barnes	-11.1478
▁manufacturer	-11.1478
▁Pierre	-11.1479
▁Bow	-11.1479
▁realistic	-11.1481
ller	-11.1482
wich	-11.1482
▁inning	-11.1491
▁portrait	-11.1492
▁Donald	-11.1494
▁hide	-11.1495
▁fortune	-11.1496
▁lesson	-11.1498
ide	-11.15
naming	-11.1502
▁CE	-11.1503
▁Say	-11.1507
▁overlook	-11.1507
▁alert	-11.1512
▁Independence	-11.1513
▁Chapel	-11.152
▁prototype	-11.1521
ei	-11.1523
▁Ur	-11.1525
▁spark	-11.1529
rat	-11.1529
▁mineral	-11.1531
▁Cor	-11.1532
▁Turkey	-11.1533
▁Falls	-11.1535
▁Attorney	-11.1536
▁blast	-11.1536
▁autobiograph	-11.1537
▁1888	-11.1538
▁Scots	-11.1544
▁ear	-11.1546
▁MacArthur	-11.1548
▁Sherman	-11.155
▁drain	-11.1553
▁Century	-11.1553
▁hostile	-11.1555
▁chas	-11.1559
▁Baltic	-11.156
▁speculation	-11.1561
▁pictures	-11.1565
▁Evil	-11.1568
▁rescu	-11.1568
▁reforms	-11.1569
ich	-11.1571
▁Panzer	-11.1571
▁traditions	-11.1572
tha	-11.1572
▁oversee	-11.1572
▁hang	-11.1573
ay	-11.1575
▁remov	-11.1575
lon	-11.1578
▁metric	-11.1579
gon	-11.1579
ean	-11.1581
▁Cemetery	-11.1582
▁relation	-11.1583
▁1885	-11.1585
▁Branch	-11.1588
▁Saturn	-11.1588
▁equally	-11.1588
har	-11.1589
▁epic	-11.159
▁tomb	-11.1593
▁Draft	-11.1594
OC	-11.1597
▁strand	-11.16
▁captur	-11.1601
▁dependent	-11.1601
▁Sean	-11.1605
▁proceeding	-11.1606
▁Czech	-11.1606
▁vital	-11.1606
▁censor	-11.1606
▁amendment	-11.1606
▁wet	-11.1607
▁Resident	-11.1612
▁infant	-11.1628
▁Joan	-11.1631
▁nucle	-11.1633
dium	-11.1636
▁swing	-11.1645
▁Gal	-11.1645
▁dying	-11.1649
▁explaining	-11.165
▁airing	-11.1654
▁Bri	-11.1656
▁closure	-11.1659
▁twist	-11.1659
▁rumor	-11.1659
▁galax	-11.1659
▁Gill	-11.1661
▁hurt	-11.1664
▁comprise	-11.1665
▁104	-11.1675
itis	-11.1676
▁Nanc	-11.1676
master	-11.168
▁concurrent	-11.1682
and	-11.1684
▁drink	-11.1685
▁comment	-11.1687
▁bull	-11.169
▁Rear	-11.1691
▁Plant	-11.1692
▁Reagan	-11.1695
▁daughters	-11.1695
▁circular	-11.1698
▁Mc	-11.1704
▁Ivan	-11.1704
▁Tribune	-11.1706
▁Management	-11.1706
▁romance	-11.171
▁Thames	-11.1712
▁Qu	-11.1713
▁111	-11.1714
▁scrap	-11.1714
▁Mind	-11.1715
▁ski	-11.1715
ose	-11.1717
▁Romney	-11.1718
▁separation	-11.1719
▁Glee	-11.1719
▁suspension	-11.1723
▁doctrine	-11.1729
▁Athens	-11.173
▁Barbara	-11.1731
▁Rogers	-11.1733
▁rider	-11.1734
▁Organization	-11.1736
▁distinction	-11.1737
▁intent	-11.1739
▁109	-11.174
▁disagree	-11.174
▁1865	-11.1743
▁bitter	-11.1744
ology	-11.1744
▁Baron	-11.1752
▁Program	-11.1752
▁persons	-11.1754
▁columns	-11.1758
▁bomber	-11.1762
▁invest	-11.177
wept	-11.1772
nna	-11.1778
▁enhanc	-11.178
where	-11.1781
▁homosexual	-11.1783
▁manufacturing	-11.1783
▁calculat	-11.1784
▁Fo	-11.1785
ila	-11.1787
▁Legend	-11.1789
▁NATO	-11.1789
▁Comedy	-11.179
▁handling	-11.1794
▁abroad	-11.1795
cal	-11.1796
▁Set	-11.1796
▁blend	-11.1796
av	-11.1797
▁generate	-11.1799
▁Ber	-11.1799
▁myster	-11.1805
▁pav	-11.1806
▁Miles	-11.1806
ified	-11.1808
▁viewer	-11.1808
▁velocity	-11.1811
▁enroll	-11.1812
▁harsh	-11.1813
long	-11.1813
▁shortage	-11.1818
▁continent	-11.1818
ect	-11.1818
▁volcanic	-11.1819
▁Action	-11.1823
▁Fisher	-11.1827
▁Burn	-11.1827
wan	-11.183
▁segments	-11.1831
▁universities	-11.1841
▁Cyclone	-11.1843
▁Wa	-11.1844
▁Sk	-11.1847
▁stroke	-11.1848
▁egg	-11.1848
▁Spin	-11.1849
▁Walk	-11.185
▁sinking	-11.1852
bar	-11.1852
ducted	-11.1854
▁Robin	-11.186
▁unveil	-11.1861
ible	-11.1862
▁interrupt	-11.1862
cu	-11.1863
▁Kill	-11.1863
▁Low	-11.1864
▁dust	-11.1866
▁client	-11.1873
▁Sue	-11.1876
▁approache	-11.1876
▁Portugal	-11.1879
yne	-11.1884
▁cattle	-11.1885
▁bears	-11.1885
▁physician	-11.1886
qua	-11.1887
68	-11.1888
▁belonging	-11.189
▁usage	-11.1892
▁cards	-11.1897
▁Got	-11.1902
▁Der	-11.1904
▁Newcastle	-11.1909
▁licens	-11.1909
dia	-11.1912
critic	-11.1912
▁sentenc	-11.1913
▁marking	-11.1915
▁Constantinople	-11.1927
nor	-11.1929
▁corps	-11.1933
▁Count	-11.1939
▁Chan	-11.194
▁participants	-11.194
rie	-11.1945
▁Shadow	-11.1945
▁Ly	-11.1948
▁assessment	-11.1952
▁reache	-11.1953
▁Representatives	-11.1955
▁advocat	-11.1956
▁kings	-11.1958
▁Drake	-11.1959
tle	-11.1964
▁Personnel	-11.1969
▁Heavyweight	-11.1969
▁Shi	-11.197
br	-11.1975
▁loyal	-11.1975
▁José	-11.1975
gy	-11.1976
▁strange	-11.1979
▁companion	-11.1981
▁450	-11.1982
▁Had	-11.1983
▁studying	-11.1987
▁massacre	-11.1988
▁Continental	-11.1988
▁organisms	-11.1988
▁Joint	-11.1991
▁Shah	-11.1991
▁trait	-11.1992
▁enzyme	-11.1993
▁Vo	-11.1994
▁Op	-11.1997
▁pole	-11.1999
ode	-11.1999
▁Sport	-11.2003
▁demographic	-11.2006
▁admit	-11.2006
▁Sur	-11.2007
▁commanders	-11.2008
▁101	-11.2009
▁cheap	-11.2012
▁boyfriend	-11.2018
▁millimetre	-11.2018
▁Laboratory	-11.2019
▁1864	-11.202
▁lighter	-11.2022
▁Cornwall	-11.2024
▁blam	-11.2025
▁Sho	-11.2026
▁Liberty	-11.2029
▁Ancient	-11.203
▁ceiling	-11.203
▁goddess	-11.203
▁debri	-11.2032
▁Future	-11.2035
▁quot	-11.204
▁gods	-11.204
▁Tournament	-11.2042
▁choir	-11.2042
▁tr	-11.2042
▁Dal	-11.2043
ida	-11.2044
Tune	-11.2044
▁batteries	-11.2047
▁operates	-11.2051
▁volunteers	-11.2054
▁ambassador	-11.2054
▁Standard	-11.2055
▁Marshal	-11.2056
▁genuine	-11.2057
▁reactions	-11.2062
▁Ros	-11.2064
▁inquir	-11.2067
▁persist	-11.2075
▁Ellis	-11.2078
▁settle	-11.2081
▁Affairs	-11.2082
▁Rama	-11.2087
▁Then	-11.2087
▁Cena	-11.2087
▁corporate	-11.2091
▁extract	-11.2091
▁wash	-11.2093
▁ballot	-11.2094
▁visits	-11.2095
▁cameo	-11.2095
ress	-11.2097
tt	-11.2098
▁squadrons	-11.2102
ret	-11.2102
▁remake	-11.2104
▁transmission	-11.2104
▁navigation	-11.2104
▁options	-11.2113
▁consumption	-11.2116
▁Leon	-11.2116
▁Alberta	-11.2117
▁easier	-11.2117
▁indigenous	-11.2119
▁logo	-11.2122
▁Leicester	-11.2122
▁Strait	-11.2123
▁occurr	-11.2129
▁definite	-11.2129
▁Link	-11.213
▁ramp	-11.2132
▁random	-11.2135
▁Tre	-11.2138
▁lit	-11.2139
▁measur	-11.2141
▁Gil	-11.2141
▁cyclones	-11.2144
▁Normand	-11.2145
▁deputy	-11.2147
▁blues	-11.2147
▁Isaac	-11.2152
▁Career	-11.2152
▁integrat	-11.216
▁Commissioner	-11.216
▁Meyer	-11.216
▁helicopter	-11.2165
▁Boulevard	-11.2165
▁dies	-11.217
▁Malcolm	-11.2171
▁resignation	-11.2173
▁scrapp	-11.2181
▁fulfill	-11.2181
bin	-11.2182
owing	-11.2182
▁Capital	-11.2184
▁metre	-11.2185
▁vi	-11.2186
▁transit	-11.2188
▁Energy	-11.219
▁Walt	-11.2191
▁Angelo	-11.2191
q	-11.2192
adi	-11.2195
▁Chamberlain	-11.2196
▁Dublin	-11.2196
▁Pedro	-11.2197
lis	-11.2197
ew	-11.22
▁referee	-11.2202
▁fat	-11.2202
▁ties	-11.2202
▁Lower	-11.2204
▁vocalist	-11.2206
▁excess	-11.2208
▁flesh	-11.2209
▁shadow	-11.2209
▁flash	-11.221
▁Meteorologica	-11.221
▁allocat	-11.2212
▁dreadnought	-11.2215
▁punishment	-11.2216
ré	-11.2217
▁accessibl	-11.2219
▁Ex	-11.2219
worthy	-11.222
▁challenges	-11.2225
▁sum	-11.2226
▁campaigns	-11.2237
▁Archbishop	-11.2238
▁Yugoslavia	-11.2239
▁restrictions	-11.2245
▁Friends	-11.2246
▁ERA	-11.2248
▁Str	-11.225
▁Opera	-11.2259
▁relat	-11.2259
▁statements	-11.2259
▁1862	-11.226
▁bore	-11.2261
ux	-11.2263
▁Electronic	-11.2265
▁parks	-11.2265
▁hills	-11.2266
▁benefits	-11.2274
▁polar	-11.2274
gh	-11.2274
▁collision	-11.2277
▁DJ	-11.2283
ika	-11.2287
▁breast	-11.2289
▁Yard	-11.2289
▁corresponding	-11.229
▁nephew	-11.2296
▁territorial	-11.2298
▁Wonder	-11.2299
▁judges	-11.23
▁Romanian	-11.2304
▁angr	-11.2305
▁Julian	-11.2306
▁averag	-11.2308
▁Hawk	-11.231
▁Roberts	-11.2311
▁doors	-11.2319
Hg	-11.2321
polis	-11.2321
▁Mat	-11.2321
▁Eddie	-11.2321
▁Machine	-11.2322
▁Bradley	-11.2325
▁Dale	-11.2325
▁shipment	-11.2327
▁industrie	-11.2327
▁Hearts	-11.2328
▁Dennis	-11.2329
tter	-11.2332
▁attribute	-11.2335
▁rapper	-11.2338
▁sack	-11.2338
▁organic	-11.2338
▁Guild	-11.2341
▁Fer	-11.2343
45	-11.2344
▁Char	-11.2344
▁kilogram	-11.2346
▁Origin	-11.2346
▁Rub	-11.235
▁Where	-11.2351
▁beliefs	-11.2352
ii	-11.2357
▁vicinit	-11.2359
▁municipal	-11.236
▁Number	-11.2361
▁mixing	-11.2362
48	-11.2363
▁Mart	-11.2363
▁corridor	-11.2365
▁Serbia	-11.2365
ives	-11.2366
49	-11.2367
uma	-11.2368
▁variations	-11.2368
▁exhaust	-11.2368
▁Stra	-11.2375
▁particles	-11.2375
▁decid	-11.2378
▁Make	-11.2379
▁Historian	-11.2382
▁valid	-11.2382
▁Political	-11.2384
▁Rush	-11.2384
▁tea	-11.2387
▁observe	-11.2388
▁thunderstorm	-11.239
▁Crystal	-11.2392
ef	-11.2392
▁pounder	-11.2392
▁infect	-11.2393
▁loud	-11.2395
▁Dakota	-11.2397
▁Morning	-11.2397
35	-11.2397
▁Mass	-11.2404
▁complicated	-11.2407
▁stall	-11.241
▁Youth	-11.2411
▁parliamentar	-11.2412
▁rely	-11.2412
▁Mag	-11.2413
▁inaugura	-11.2415
PA	-11.2416
lot	-11.2416
▁Jake	-11.2417
▁consumer	-11.2425
▁Bears	-11.2426
▁Bud	-11.2429
▁Ag	-11.2431
▁roster	-11.2435
▁Tommy	-11.2435
▁burst	-11.2436
▁Springfield	-11.2436
DOT	-11.2438
▁screening	-11.2441
▁Angle	-11.2442
▁Serb	-11.2442
▁humanity	-11.2443
▁prayer	-11.2445
lla	-11.245
▁stern	-11.2453
▁Alliance	-11.2457
▁hybrid	-11.2459
▁hail	-11.2459
▁Beat	-11.2461
▁barrel	-11.2466
▁fluid	-11.2468
▁Fur	-11.2473
▁honest	-11.2473
▁Range	-11.2476
▁Gibraltar	-11.2479
▁breach	-11.248
▁mysterious	-11.248
▁reconstruction	-11.2481
bel	-11.2483
▁Burke	-11.2485
▁Wagner	-11.2486
▁ferry	-11.2487
▁mansion	-11.2487
▁domain	-11.2492
▁convicted	-11.2492
▁combine	-11.25
▁Nor	-11.25
▁Studies	-11.25
▁Ages	-11.2504
▁Cincinnati	-11.2505
▁user	-11.2507
▁Montana	-11.2512
▁silent	-11.2518
▁sharks	-11.2518
▁Des	-11.2519
▁1840	-11.252
▁Blake	-11.252
▁Maine	-11.252
▁Scar	-11.2523
▁Schuma	-11.2524
▁sheep	-11.2525
▁Malta	-11.2525
▁Yan	-11.2528
▁maps	-11.2528
▁steadi	-11.253
▁exterior	-11.2531
▁sentiment	-11.2531
▁labour	-11.2532
▁colours	-11.2534
▁AA	-11.2535
ray	-11.2544
▁wonder	-11.2545
ox	-11.2549
och	-11.2549
▁Dis	-11.2555
▁rotation	-11.2558
ky	-11.2568
▁Taiwan	-11.2569
rac	-11.257
▁sad	-11.2576
▁Nation	-11.2577
▁permit	-11.258
▁stain	-11.2581
▁Friedrich	-11.2582
▁gunner	-11.2582
▁knight	-11.2582
mouth	-11.2584
▁medals	-11.2584
▁Fear	-11.2584
▁Reich	-11.2585
▁prestig	-11.2589
▁Hull	-11.2589
▁mammals	-11.259
▁ensur	-11.259
kar	-11.2594
▁congregation	-11.2595
▁abolish	-11.2595
▁voters	-11.2596
mbar	-11.2597
▁Inside	-11.2601
▁mutual	-11.2601
▁220	-11.2604
▁gathering	-11.2605
▁spider	-11.2608
▁compar	-11.261
▁dock	-11.2611
▁reporter	-11.2614
▁sick	-11.262
▁Olivia	-11.2621
▁invent	-11.2622
▁Ty	-11.2626
▁outdoor	-11.2627
▁stunt	-11.2627
ska	-11.2629
▁elevat	-11.263
zo	-11.2631
▁threatening	-11.2638
▁stepp	-11.2641
▁Mann	-11.2646
▁feathers	-11.2654
▁1887	-11.2655
▁Devil	-11.2656
▁sphere	-11.2657
▁quarters	-11.2657
▁Shield	-11.266
▁Antarctic	-11.266
▁Yugoslav	-11.266
ira	-11.2662
▁Hop	-11.2663
▁installment	-11.2669
▁patent	-11.2673
▁Curtis	-11.2673
▁Afghanistan	-11.2679
▁prosper	-11.2679
▁Arena	-11.2679
▁log	-11.2684
▁remarkabl	-11.2688
▁Tor	-11.2689
▁Beth	-11.2693
▁camps	-11.2693
▁filmmaker	-11.2698
set	-11.2699
▁Madison	-11.2699
▁VIII	-11.2699
▁1863	-11.27
ore	-11.2701
▁outstanding	-11.2701
oll	-11.2705
▁Twitter	-11.2705
▁Circle	-11.2705
89	-11.2709
▁varie	-11.2711
▁readi	-11.2711
ves	-11.2711
▁Min	-11.2711
▁disabl	-11.2718
▁Edmund	-11.2719
▁1886	-11.2721
reby	-11.2722
▁Nam	-11.2724
▁Technology	-11.2725
▁Bang	-11.2727
▁borrow	-11.2729
▁Orton	-11.2732
▁propagand	-11.2738
▁Vegas	-11.2738
▁enact	-11.2744
▁trio	-11.2744
▁skeleton	-11.2745
▁Former	-11.2748
▁migration	-11.2752
▁Gregory	-11.2757
▁gauge	-11.2764
therapy	-11.2765
▁mild	-11.2771
art	-11.2773
▁Poké	-11.2777
▁courses	-11.2778
▁dropping	-11.2779
▁tools	-11.278
▁Mur	-11.278
nen	-11.2784
▁Millenni	-11.2785
▁102	-11.2788
978	-11.2788
▁plates	-11.2789
▁cuts	-11.2797
▁teenager	-11.2797
▁Brooklyn	-11.2804
▁judicial	-11.2805
▁exploration	-11.2807
ato	-11.2808
▁varying	-11.281
▁Mercury	-11.281
▁conspiracy	-11.2815
▁Too	-11.2815
▁lasting	-11.2817
▁nurse	-11.2817
▁Sol	-11.2818
▁assassination	-11.2819
▁Josh	-11.2824
▁Comics	-11.2825
▁Princeton	-11.2827
▁vers	-11.2828
▁McKinley	-11.283
▁faculty	-11.2831
iff	-11.2833
▁carv	-11.2836
▁Austro	-11.2837
bro	-11.2837
night	-11.2839
ids	-11.2842
▁harbor	-11.2843
▁Veni	-11.2845
▁grid	-11.285
▁emission	-11.285
▁Em	-11.2862
▁Ter	-11.2862
▁Banks	-11.2863
▁submerg	-11.2863
▁Hubbard	-11.2863
▁anthem	-11.2864
▁Herbert	-11.2865
▁witnesses	-11.2868
▁complement	-11.2868
▁intermediate	-11.287
▁Fat	-11.287
▁Milan	-11.2873
▁Marines	-11.2876
▁AC	-11.2879
▁psychological	-11.2883
proved	-11.2887
▁Iran	-11.2891
▁comics	-11.2893
▁pet	-11.2895
▁enormous	-11.2897
▁milk	-11.2897
▁zero	-11.2897
▁MLB	-11.2897
ria	-11.2898
▁Tell	-11.2899
▁pin	-11.2901
▁Buddhist	-11.2903
▁Urban	-11.2903
▁blockade	-11.2904
▁bombard	-11.2904
▁Large	-11.2904
▁Holland	-11.2905
▁Brook	-11.2906
une	-11.2907
▁Ol	-11.2907
▁Eagle	-11.2909
▁Hood	-11.2909
▁corporation	-11.291
▁Tin	-11.2916
▁routing	-11.2916
▁sketch	-11.2918
88	-11.2919
▁Rich	-11.292
etic	-11.2921
nix	-11.2922
▁NASA	-11.2924
▁Cre	-11.2925
▁voices	-11.2927
▁Solar	-11.2928
▁gene	-11.2929
▁commend	-11.293
▁magnetic	-11.2931
mus	-11.2931
▁declaration	-11.2938
▁Month	-11.2938
▁1884	-11.2939
▁Talk	-11.2942
▁coastline	-11.2943
▁Official	-11.2948
▁Glasgow	-11.295
▁acquisition	-11.295
dra	-11.2952
avi	-11.2953
▁Tigers	-11.2966
24	-11.2966
▁Gay	-11.2968
pur	-11.2968
▁locomotives	-11.2968
▁Canucks	-11.297
▁detect	-11.297
rin	-11.2972
▁Mile	-11.2974
▁Sultan	-11.2976
▁holes	-11.2982
▁boost	-11.2983
▁atop	-11.2985
▁consequence	-11.299
▁harvest	-11.299
▁excessive	-11.2991
▁murdered	-11.2996
▁Thor	-11.2997
▁decoration	-11.2998
▁insurance	-11.2999
▁Computer	-11.3
oma	-11.3001
▁confused	-11.3003
▁martial	-11.3004
▁allegation	-11.3004
▁stability	-11.3005
▁Theater	-11.3005
▁rebel	-11.3009
ob	-11.3009
▁Smack	-11.3011
▁Lev	-11.3015
▁Jacque	-11.3017
▁uprising	-11.302
▁tender	-11.3025
▁violation	-11.3027
▁Phillies	-11.3031
▁ambush	-11.3031
▁Fifth	-11.3031
▁flown	-11.3031
▁micro	-11.3032
▁worse	-11.3034
▁torpedoes	-11.3035
▁Lauren	-11.3036
▁Ghost	-11.3037
▁Train	-11.3038
▁echo	-11.3039
sson	-11.304
▁resembl	-11.3041
kovic	-11.3046
▁Theodore	-11.3049
▁sin	-11.3052
▁Monte	-11.3053
▁Les	-11.3055
▁adjust	-11.3063
▁Ottawa	-11.3064
▁Round	-11.3065
atory	-11.3066
▁Franco	-11.3066
naissance	-11.3071
▁Percy	-11.3073
▁Ernest	-11.3074
▁remind	-11.3075
▁ease	-11.3076
▁Planet	-11.3079
nic	-11.3081
▁diversity	-11.3082
▁Mercede	-11.3087
▁cotton	-11.3092
▁Westminster	-11.3092
▁rice	-11.3096
▁exceptional	-11.3098
▁quest	-11.3102
aire	-11.3106
▁Total	-11.3108
▁1877	-11.3108
eng	-11.3108
▁emphasiz	-11.311
▁diminish	-11.3112
▁Tintin	-11.3112
▁collector	-11.3113
▁rains	-11.3116
28	-11.312
▁Bon	-11.3121
▁calm	-11.3122
▁Revolutionar	-11.3125
pl	-11.3126
▁CEO	-11.3126
▁Denver	-11.3126
Q	-11.3127
nes	-11.3131
▁jersey	-11.3132
▁Name	-11.3135
gal	-11.3135
▁Trans	-11.3136
▁engineers	-11.3142
▁Bor	-11.3144
▁myself	-11.3147
▁outfit	-11.3149
▁touchdowns	-11.315
15	-11.3152
▁Basketball	-11.3153
▁conviction	-11.3154
▁1876	-11.3155
▁dissolv	-11.3159
▁Current	-11.316
▁jail	-11.316
▁Kings	-11.3161
▁Gang	-11.3165
een	-11.3166
▁collections	-11.3167
85	-11.317
▁compris	-11.317
▁Nevada	-11.3173
▁Manuel	-11.3174
▁donation	-11.3178
▁hypothesis	-11.3181
▁Sword	-11.3181
▁battlefield	-11.3182
▁deployment	-11.3183
▁Gothic	-11.3187
ort	-11.3191
▁punt	-11.3191
▁aesthetic	-11.3194
▁aggregate	-11.3194
▁intelligent	-11.3194
▁rebounds	-11.3194
▁Chuck	-11.3194
▁Albany	-11.32
cat	-11.3207
▁nationalist	-11.321
Brien	-11.3214
▁laps	-11.3215
▁hint	-11.3215
▁Otto	-11.3216
▁Gloucester	-11.3221
▁Ronald	-11.3221
▁detected	-11.3222
▁Strong	-11.3223
▁DS	-11.3224
▁viewing	-11.3225
▁hatch	-11.3226
ali	-11.323
▁Colin	-11.3235
▁mono	-11.3235
▁agencies	-11.3235
▁eliminate	-11.3238
▁consideration	-11.324
▁Za	-11.3241
▁ghost	-11.3242
▁motif	-11.3242
▁relate	-11.3244
▁Eli	-11.3245
▁revenge	-11.3249
▁Kid	-11.3249
▁radius	-11.3251
▁sensitive	-11.3256
lie	-11.3256
▁assignment	-11.3263
▁Emma	-11.3265
▁Days	-11.3267
▁threats	-11.3268
▁beside	-11.3268
▁scores	-11.3268
▁Ellen	-11.3268
▁Belle	-11.327
▁reviv	-11.3275
Down	-11.3275
▁Gi	-11.3281
▁Stage	-11.3283
▁cemetery	-11.3295
▁Ri	-11.3295
▁file	-11.3296
▁declare	-11.3297
▁Barcelona	-11.3297
▁Economic	-11.3297
▁Territory	-11.3297
▁Composition	-11.3297
▁Ser	-11.33
▁Cox	-11.3301
uck	-11.3302
▁indirect	-11.3304
▁Churchill	-11.3306
▁enthusiastic	-11.3306
▁Petr	-11.3308
▁Chester	-11.3311
▁venture	-11.3316
▁1830	-11.332
11	-11.3321
▁specialist	-11.3326
tur	-11.3327
▁guests	-11.3328
33	-11.3328
▁Canyon	-11.3332
▁1875	-11.334
▁finals	-11.3341
▁Devon	-11.3341
▁editions	-11.3342
▁odd	-11.3343
▁width	-11.3346
▁Foster	-11.3346
▁crush	-11.3349
▁mad	-11.3349
stage	-11.3349
▁notic	-11.3349
▁Turn	-11.3362
▁Break	-11.3365
▁consequent	-11.3367
▁prompting	-11.3369
▁Var	-11.337
▁resign	-11.3373
▁abundant	-11.3374
▁Mak	-11.3376
▁speculat	-11.3378
▁Reed	-11.3379
▁notion	-11.3379
▁emerge	-11.3383
▁lava	-11.339
▁resolve	-11.3394
▁Marsh	-11.3394
▁fossils	-11.3396
▁manag	-11.3398
▁Parkway	-11.3401
▁Carlos	-11.3402
▁Lamb	-11.3403
▁Delta	-11.3403
▁cubic	-11.3404
brook	-11.3405
gé	-11.3407
▁Duncan	-11.3409
▁Raymond	-11.3409
▁Leigh	-11.3412
▁strikes	-11.3413
▁competitions	-11.342
▁1883	-11.3424
▁Derby	-11.3425
▁linear	-11.3425
▁functional	-11.3426
▁Rosa	-11.3428
▁RBI	-11.343
▁weakness	-11.3436
▁Weather	-11.3437
▁southwestern	-11.3437
oli	-11.3439
79	-11.3444
oh	-11.3448
lor	-11.345
heim	-11.3452
▁harmon	-11.3454
▁successive	-11.3455
▁links	-11.3457
▁Calgar	-11.3458
▁1881	-11.346
▁laugh	-11.3461
▁LP	-11.3462
mura	-11.3464
▁aside	-11.3464
▁procedure	-11.3466
▁gam	-11.3471
▁Gene	-11.3472
▁memoir	-11.3472
▁detach	-11.3472
▁Northwest	-11.3479
▁Professional	-11.3479
ensis	-11.348
ole	-11.3482
▁properly	-11.3482
▁rocks	-11.3483
▁tier	-11.3484
▁Blair	-11.3486
▁hence	-11.349
sbury	-11.3492
▁blame	-11.3492
▁proxim	-11.3493
▁instant	-11.3494
▁Labor	-11.3494
▁Starr	-11.3495
▁vegetation	-11.35
▁Jamaica	-11.35
▁spawn	-11.3504
▁presidenc	-11.3505
▁invitation	-11.3506
▁archaeological	-11.3512
▁leaf	-11.3516
▁prefer	-11.3517
▁Stein	-11.3517
▁acquire	-11.3518
▁Lancashire	-11.3521
▁Ge	-11.3522
▁Richardson	-11.3522
▁orchestral	-11.3522
par	-11.3522
▁consciousness	-11.3523
▁Powell	-11.3523
▁Christin	-11.3523
▁coaches	-11.3525
▁crucial	-11.3525
feld	-11.3527
lay	-11.3528
▁Henderson	-11.3528
▁delegation	-11.3535
saw	-11.3538
▁True	-11.3538
▁Cardinals	-11.3539
▁hunter	-11.354
▁mast	-11.354
▁RNA	-11.3542
▁Desert	-11.3543
▁1869	-11.3545
oon	-11.3547
38	-11.3553
34	-11.3553
▁update	-11.3554
▁encounters	-11.3559
lium	-11.356
▁continental	-11.3563
CS	-11.3563
ban	-11.3564
▁tendenc	-11.3567
▁Store	-11.3568
▁verses	-11.3569
▁Pitt	-11.357
▁190	-11.3572
dar	-11.3574
▁dri	-11.3574
refore	-11.3574
▁borough	-11.3576
▁prevail	-11.3578
▁230	-11.3579
▁Chad	-11.3579
▁Author	-11.358
▁127	-11.3583
sfield	-11.3583
ante	-11.3585
▁1866	-11.3588
▁el	-11.359
▁northeastern	-11.359
▁Steam	-11.3594
▁updat	-11.3596
▁Ferdinand	-11.36
ava	-11.3603
gle	-11.3604
▁nervous	-11.3607
▁Veronica	-11.3607
▁Floyd	-11.3607
▁detachment	-11.3608
bal	-11.3608
▁electro	-11.3609
▁woodland	-11.3612
tus	-11.3612
▁Hendri	-11.3616
▁Auto	-11.362
56	-11.3625
▁larva	-11.3629
ath	-11.3631
▁boom	-11.3635
▁bag	-11.3637
▁consensu	-11.365
▁Wellington	-11.365
▁corruption	-11.3651
▁Nu	-11.3652
▁Buck	-11.3653
99	-11.3653
▁phenomenon	-11.3657
uch	-11.3657
mu	-11.3661
▁genres	-11.3662
▁authentic	-11.3664
▁Poe	-11.3664
lar	-11.367
▁Palestin	-11.367
▁Crawford	-11.3671
oul	-11.3675
▁horn	-11.3679
▁Malay	-11.368
▁whale	-11.368
▁modest	-11.3681
▁Hit	-11.3681
▁Sid	-11.3681
▁Aaron	-11.3686
▁Geoffr	-11.3691
▁Cher	-11.3691
▁induc	-11.3692
▁Fa	-11.3694
▁Episode	-11.3699
aten	-11.37
▁consent	-11.37
▁Culture	-11.37
41	-11.3701
▁golf	-11.3709
▁surprising	-11.3714
▁hamlet	-11.3714
▁Using	-11.3715
▁sortie	-11.3716
▁instructions	-11.3717
▁sailors	-11.3722
▁throat	-11.3722
▁populat	-11.3722
▁coordinate	-11.3724
▁Market	-11.3727
▁championships	-11.3727
▁Viet	-11.373
▁Pal	-11.3731
▁Truman	-11.3731
▁750	-11.3732
▁Tucker	-11.3732
▁eighteen	-11.3735
ope	-11.3735
▁poverty	-11.3736
▁thanks	-11.3738
▁philosopher	-11.3739
▁bottle	-11.3741
▁Members	-11.3743
▁input	-11.3746
▁Lock	-11.3747
▁possessed	-11.3747
▁XI	-11.3748
▁eruption	-11.3748
▁yd	-11.375
▁Telegraph	-11.3751
▁kitchen	-11.3751
▁arcade	-11.3751
▁lifestyle	-11.3752
▁comfortabl	-11.3753
▁Site	-11.3755
▁fatalit	-11.3757
▁Fischer	-11.3758
▁Non	-11.376
▁rehearsal	-11.3761
▁Headquarters	-11.3765
▁Er	-11.3772
▁ambition	-11.3772
▁innovation	-11.3772
▁Solomon	-11.3773
▁Mall	-11.3773
▁printing	-11.3773
▁stripp	-11.3774
▁1873	-11.3775
pan	-11.3776
▁dimensional	-11.3777
▁Why	-11.378
▁frontier	-11.378
▁175	-11.3783
▁Was	-11.3785
▁variant	-11.3785
▁worker	-11.3787
▁Single	-11.3788
▁1882	-11.3788
ero	-11.3789
tar	-11.3789
▁insert	-11.3789
wi	-11.379
▁Lead	-11.379
cia	-11.3791
▁seeming	-11.3795
▁forth	-11.3797
▁1871	-11.3797
16	-11.3798
▁ensemble	-11.3801
▁molecular	-11.3802
pop	-11.3802
▁Pr	-11.3808
▁pleasure	-11.3809
▁Beij	-11.3811
hr	-11.3812
▁silk	-11.3813
▁Monster	-11.3815
▁Has	-11.3815
▁filter	-11.3816
▁Michel	-11.3816
▁Punk	-11.3818
▁Cloud	-11.3822
▁listening	-11.3822
tel	-11.3822
awa	-11.3823
▁Heavy	-11.3823
▁Flanders	-11.3823
▁1867	-11.3826
▁peasant	-11.3831
▁Jet	-11.3831
▁rocket	-11.3832
▁Chile	-11.3833
37	-11.3833
▁Food	-11.3834
▁Mail	-11.3834
▁spur	-11.3834
▁Steel	-11.3834
▁Horn	-11.3836
▁button	-11.3837
▁Adrian	-11.3838
▁overcome	-11.3838
▁CO	-11.384
▁135	-11.3844
▁persuade	-11.3847
▁acceptance	-11.3847
▁tactical	-11.3847
▁interact	-11.3848
▁realm	-11.3851
▁Metal	-11.3851
▁Kin	-11.3852
▁Kepler	-11.3853
▁reopen	-11.3853
gel	-11.3853
▁Quest	-11.3859
▁fierce	-11.386
▁Watson	-11.3861
▁Bro	-11.3865
eri	-11.3867
▁Alpha	-11.3869
▁Mine	-11.387
▁Bengal	-11.3874
▁troop	-11.3876
▁relay	-11.3877
▁clip	-11.3879
▁Rath	-11.3881
▁divine	-11.3882
▁shopp	-11.3885
▁mechanics	-11.389
▁canon	-11.3892
▁1878	-11.3892
▁Gabriel	-11.3895
▁tributar	-11.3897
▁Dudley	-11.3897
▁Heaven	-11.3897
▁arguments	-11.3898
▁Tir	-11.3899
▁erupt	-11.3902
▁Travel	-11.3905
▁Gra	-11.3908
▁performers	-11.3909
14	-11.391
▁Deputy	-11.391
▁unanimous	-11.3911
▁reminiscen	-11.3914
oi	-11.3915
▁syndrome	-11.3919
▁thorough	-11.3919
▁Chase	-11.392
▁memori	-11.3923
▁overwhelming	-11.3923
▁mock	-11.3925
▁Clement	-11.3926
▁clash	-11.3928
lia	-11.3931
▁McCarthy	-11.3934
▁graphic	-11.3936
▁Mis	-11.3945
▁winners	-11.3947
▁Trinity	-11.3948
▁Kal	-11.3949
▁Hale	-11.3952
▁Damage	-11.3952
47	-11.3954
▁revealing	-11.3955
▁Gibson	-11.3956
▁pocket	-11.3956
▁surpassed	-11.3956
▁Movement	-11.3956
000	-11.3957
▁Norse	-11.3957
una	-11.396
ien	-11.3963
▁fitting	-11.3964
▁Region	-11.3965
ibility	-11.3967
▁headline	-11.3967
zu	-11.3968
▁conducting	-11.3969
▁elephant	-11.397
▁Commercial	-11.3971
onic	-11.3971
▁Hawaiian	-11.3974
elli	-11.3983
▁Luftwaffe	-11.3985
▁Shu	-11.3989
▁privilege	-11.3994
▁Cry	-11.3995
▁irregular	-11.3995
▁Bol	-11.3996
▁genera	-11.3999
▁dirt	-11.4001
▁str	-11.4001
▁Hol	-11.4001
67	-11.4002
moto	-11.4003
▁Isles	-11.4006
▁UB	-11.4008
▁regiments	-11.4012
▁Rad	-11.4013
▁statute	-11.4015
▁Expedition	-11.4022
▁Mir	-11.4023
net	-11.4024
far	-11.4025
▁Burger	-11.4035
▁feminist	-11.4045
▁Choice	-11.4045
▁Mobile	-11.4045
ij	-11.4048
cus	-11.4049
▁missile	-11.4051
▁reader	-11.4051
ima	-11.4056
▁Bermuda	-11.406
▁legitimate	-11.406
▁Leader	-11.4061
▁publish	-11.4067
▁Adult	-11.4067
hart	-11.4068
▁raw	-11.4069
book	-11.4072
▁lesbian	-11.4075
▁bacteria	-11.4075
▁plantation	-11.4079
▁Notable	-11.408
▁qualification	-11.4082
OS	-11.4083
▁Ye	-11.4084
▁reinforce	-11.409
44	-11.409
▁Shelley	-11.409
▁bowled	-11.4091
▁conductor	-11.4095
▁Monroe	-11.4097
▁Kerr	-11.4099
▁Newman	-11.41
▁declar	-11.4112
▁loyalty	-11.4114
▁immigrants	-11.4114
▁caution	-11.412
▁Pra	-11.412
▁Manager	-11.4123
▁Monument	-11.4127
▁Spencer	-11.4129
▁perception	-11.4129
ami	-11.413
oni	-11.4134
▁oak	-11.4135
▁adequate	-11.4142
▁intact	-11.4142
▁Combat	-11.4145
▁Logan	-11.415
▁whales	-11.4152
▁1872	-11.4153
▁teach	-11.4154
▁elde	-11.4155
▁dome	-11.4155
▁Aguilera	-11.4157
▁Selena	-11.4158
str	-11.416
▁1868	-11.4161
▁Various	-11.4165
▁fragments	-11.417
▁ash	-11.4171
▁caliber	-11.4173
▁Mov	-11.4173
▁duck	-11.4175
▁Lone	-11.4176
▁receiver	-11.4176
▁desperate	-11.4179
▁coalition	-11.418
▁Chandler	-11.418
▁appreciat	-11.418
▁manual	-11.4181
▁locomotive	-11.4182
▁RPG	-11.4184
▁ants	-11.4185
▁telescope	-11.4188
▁Leed	-11.419
▁flame	-11.4194
▁Sex	-11.4196
ground	-11.4198
ologist	-11.42
▁astronomer	-11.4203
▁Cabinet	-11.4203
▁trademark	-11.4204
▁detective	-11.4205
▁comprised	-11.4207
▁pine	-11.4208
▁batsman	-11.4209
▁twentieth	-11.4212
shaw	-11.4212
▁propeller	-11.4213
▁instrumentation	-11.4213
▁horizontal	-11.4218
▁Marcus	-11.4218
▁greet	-11.4218
▁songwriting	-11.4219
▁Price	-11.4221
▁sic	-11.4222
▁synthesis	-11.4226
▁complaints	-11.4226
▁specializ	-11.4227
▁Body	-11.4229
sel	-11.4229
▁stake	-11.4231
▁peaceful	-11.4235
▁Butler	-11.4237
iya	-11.4241
▁knowing	-11.4246
▁objection	-11.4246
▁engaging	-11.4248
▁Generation	-11.4248
▁slot	-11.4252
▁Engineering	-11.4255
▁Griffin	-11.4256
▁renovation	-11.4259
del	-11.4264
▁captive	-11.4264
▁MVP	-11.4265
osa	-11.4266
61	-11.4267
▁motivat	-11.4267
▁preliminar	-11.4271
▁Barrett	-11.4273
▁cabin	-11.4273
▁rally	-11.4277
▁insufficient	-11.4279
▁Genesis	-11.4279
evi	-11.428
▁pregnanc	-11.4282
▁spectators	-11.4283
▁confrontation	-11.4283
▁Springs	-11.4287
▁Contemporar	-11.429
▁Article	-11.4292
▁Sc	-11.4297
▁utiliz	-11.4302
▁Ger	-11.4304
▁divert	-11.4304
▁Money	-11.4305
▁focuse	-11.4307
ado	-11.4309
▁cur	-11.431
▁motorway	-11.4311
▁Reading	-11.4314
▁Ru	-11.4315
▁Tiger	-11.4316
▁preference	-11.4318
▁judgment	-11.4318
▁Maxwell	-11.4319
▁tow	-11.4319
▁Newport	-11.432
▁Commons	-11.4322
▁stor	-11.4325
▁Adelaide	-11.4325
▁WWF	-11.4325
▁realis	-11.433
▁spare	-11.4331
▁Flames	-11.4333
▁homeless	-11.4333
▁subsid	-11.4334
▁internationally	-11.4339
▁maneuver	-11.434
▁interference	-11.4341
▁Riley	-11.4342
core	-11.4346
▁neutron	-11.4356
▁texture	-11.4359
▁stance	-11.436
nan	-11.4361
▁Sara	-11.4362
▁etc	-11.4362
▁Parachute	-11.4363
▁Cu	-11.4365
▁Chamber	-11.4368
▁Surrey	-11.4371
▁attachment	-11.4372
▁objectives	-11.4372
▁meal	-11.4372
▁155	-11.4375
▁dislik	-11.4375
▁attractive	-11.4375
▁lemurs	-11.4377
▁cylinder	-11.4379
▁circulat	-11.4381
▁extraordinar	-11.4387
ological	-11.4388
▁Essex	-11.4388
▁kn	-11.4393
▁tram	-11.4394
▁Baldwin	-11.4394
▁Skinner	-11.4395
▁und	-11.4397
▁riot	-11.4399
▁Sciences	-11.4401
▁mathematics	-11.4402
▁consequences	-11.4402
▁ministers	-11.4403
itch	-11.4403
▁alarm	-11.4406
zer	-11.4407
▁Abraham	-11.441
▁Chancellor	-11.441
▁unaware	-11.441
▁Plymouth	-11.441
▁roller	-11.4412
▁Stars	-11.4412
▁reactor	-11.4412
▁layout	-11.4415
▁Madrid	-11.4418
▁Banksia	-11.4419
ain	-11.442
▁depot	-11.4421
▁Colt	-11.4423
oo	-11.4424
▁gallery	-11.4425
▁Regard	-11.4426
▁Legion	-11.4427
▁Tra	-11.4431
elle	-11.4433
▁Preston	-11.4434
▁warrant	-11.4434
▁machines	-11.4436
▁Hancock	-11.4441
▁Para	-11.4448
▁Waters	-11.4448
▁Brigadier	-11.4449
band	-11.4451
▁Anton	-11.4454
▁passion	-11.4454
▁Stoke	-11.4458
▁pier	-11.4458
▁locate	-11.4459
▁endors	-11.4461
▁laud	-11.4463
▁Lancaster	-11.4464
▁Bosnia	-11.4465
▁Page	-11.4465
▁thickness	-11.4465
▁Edgar	-11.4466
77	-11.4467
▁Tunnel	-11.4472
▁frog	-11.4472
viation	-11.4483
▁derive	-11.4484
▁revers	-11.4486
▁quote	-11.4486
▁Ark	-11.4489
▁civilization	-11.4489
▁Model	-11.449
▁fed	-11.449
66	-11.4491
▁accelerat	-11.4494
▁enclos	-11.4496
▁citizen	-11.4499
▁machinery	-11.4502
▁runway	-11.4503
▁neglect	-11.4503
▁Christians	-11.4503
▁configuration	-11.4503
▁blade	-11.4504
▁Principal	-11.4508
▁Wu	-11.4509
▁conceal	-11.4511
▁Il	-11.4512
▁Mack	-11.4512
▁instruction	-11.4519
SU	-11.452
gue	-11.4521
▁Carol	-11.4521
ase	-11.4522
▁cluster	-11.4524
▁Florence	-11.4527
▁parade	-11.4527
▁auction	-11.4528
▁rookie	-11.4529
▁Diamond	-11.4532
▁flaw	-11.4534
▁custody	-11.4534
▁Aviation	-11.4535
▁merger	-11.4536
▁clay	-11.4537
whil	-11.4539
▁wishe	-11.454
▁confident	-11.455
▁Senior	-11.455
▁loaded	-11.4551
▁Lou	-11.4554
fall	-11.4556
aba	-11.4558
▁Foot	-11.4559
▁depress	-11.456
▁Mills	-11.456
▁Raj	-11.4564
▁Jeremy	-11.4566
▁incomplete	-11.4566
▁nominee	-11.4566
▁Usher	-11.4566
named	-11.4566
▁redesign	-11.4567
hurst	-11.457
nh	-11.4572
▁Publishing	-11.4573
▁Cuban	-11.4573
▁Glass	-11.4577
▁progression	-11.4577
▁Harper	-11.4578
ome	-11.4579
▁Admiralty	-11.458
▁Heath	-11.458
▁currency	-11.4581
▁Twenty	-11.4582
▁grandson	-11.4585
84	-11.4588
cker	-11.4589
▁pronounced	-11.4589
▁Vienna	-11.459
▁supervis	-11.4591
▁weld	-11.4591
▁Nobel	-11.4593
▁triumph	-11.4597
▁Arkansas	-11.4597
▁Jennifer	-11.4597
fin	-11.46
▁Circuit	-11.4605
▁smok	-11.4608
▁Hank	-11.461
▁mud	-11.4612
▁Romania	-11.4613
▁Flood	-11.4614
fr	-11.462
▁sibling	-11.4621
▁accommodation	-11.4622
▁Ltd	-11.4624
▁McCain	-11.4624
▁Phillips	-11.4626
▁suburb	-11.4627
▁Palm	-11.4628
augh	-11.4629
▁Stories	-11.4632
▁fake	-11.4633
▁Ci	-11.464
▁spaces	-11.4643
▁editorial	-11.4647
▁reef	-11.4648
▁Arch	-11.4649
▁McDonald	-11.4653
▁Coach	-11.4654
▁divide	-11.4656
▁cream	-11.4661
▁165	-11.4663
▁bench	-11.4664
▁molecules	-11.4665
▁obstacle	-11.4669
▁Bos	-11.4669
▁1879	-11.4672
▁centered	-11.4674
form	-11.4675
hand	-11.4675
▁correspond	-11.4675
▁organize	-11.4676
▁northwestern	-11.4677
▁merit	-11.4677
▁Panama	-11.4677
▁keen	-11.4677
▁Monday	-11.4678
▁Bowie	-11.4679
kan	-11.4679
▁Minogue	-11.4685
▁platoon	-11.4685
▁Caroline	-11.4686
▁ascend	-11.4686
▁southward	-11.469
▁Zo	-11.4691
held	-11.4693
▁atmospheric	-11.4695
▁funk	-11.4698
30	-11.4698
▁Capitol	-11.47
▁Kil	-11.4702
▁Lithuanian	-11.4705
▁Manning	-11.4708
▁proud	-11.4709
▁Tales	-11.471
▁Tai	-11.471
▁Orthodox	-11.4716
▁dawn	-11.4716
nu	-11.4723
ER	-11.4724
▁rings	-11.4725
▁Cala	-11.4726
▁Gr	-11.473
▁Newfoundland	-11.4732
▁sediment	-11.4732
▁Sierra	-11.4732
▁Allmusic	-11.4733
▁array	-11.4733
▁batter	-11.4734
▁drill	-11.4734
▁scorer	-11.4739
86	-11.4743
▁nineteenth	-11.4746
uro	-11.4749
▁Edmonton	-11.4751
mic	-11.4753
▁photographer	-11.4756
lum	-11.4757
▁deny	-11.4757
▁postpon	-11.4757
▁operator	-11.4758
▁Palmer	-11.4759
▁Cl	-11.4759
▁113	-11.4761
▁Perth	-11.4763
▁Beautiful	-11.4764
▁Mirror	-11.4764
▁admission	-11.4765
▁Lynch	-11.4766
▁soap	-11.4766
▁Motion	-11.4766
▁Industrial	-11.4772
▁thrust	-11.4772
▁conced	-11.4773
▁Rail	-11.4774
ue	-11.4778
▁duet	-11.478
▁Drama	-11.4783
▁discontinued	-11.4785
▁Bass	-11.4787
▁gravity	-11.4789
▁northwestward	-11.479
▁bout	-11.4794
▁Arabian	-11.4795
▁Task	-11.4797
▁pose	-11.4798
▁Janet	-11.48
away	-11.4801
▁subtropic	-11.4803
▁accumulat	-11.4804
▁theoretical	-11.4805
▁besieg	-11.4805
▁prosecution	-11.4806
▁Hammer	-11.4807
▁Nothing	-11.4807
▁Zu	-11.4807
end	-11.4809
▁Continu	-11.4813
▁ambitious	-11.4813
▁steady	-11.4815
▁guards	-11.4816
air	-11.4816
▁spann	-11.4818
▁processing	-11.4822
▁masse	-11.4827
▁recount	-11.4829
▁cooperation	-11.4829
CN	-11.483
bank	-11.4831
▁Right	-11.4833
▁employer	-11.4834
rick	-11.4836
▁teachers	-11.4843
▁Zoo	-11.4843
▁punish	-11.4844
▁productions	-11.4845
▁memorabl	-11.4845
ification	-11.4849
▁pinn	-11.485
▁corn	-11.4852
▁auto	-11.4853
▁Gro	-11.4859
26	-11.486
▁necessari	-11.4861
▁Double	-11.4861
▁106	-11.4863
▁fix	-11.4867
▁Operations	-11.4868
▁captivity	-11.4869
▁conjunction	-11.4869
▁patch	-11.487
▁flu	-11.487
▁Spartan	-11.4871
▁Berkel	-11.4873
▁Ry	-11.4875
▁commit	-11.4875
▁latitude	-11.4878
▁substance	-11.4878
▁Artist	-11.4883
▁Nar	-11.4887
▁Consequent	-11.4894
eur	-11.4894
▁Intelligence	-11.4894
▁ibn	-11.4894
▁Care	-11.4896
▁partners	-11.4897
cho	-11.4897
▁Sta	-11.49
▁synth	-11.4902
▁Kor	-11.4903
▁Dai	-11.4904
▁Eye	-11.4905
▁strings	-11.4907
▁busy	-11.4909
berry	-11.4914
▁JG	-11.4917
▁clerk	-11.4918
▁muzzle	-11.4918
▁magical	-11.4923
▁reconstruct	-11.4924
log	-11.4926
▁Plaza	-11.4926
▁commemorate	-11.4927
▁extinction	-11.493
▁priorit	-11.4931
unt	-11.4935
▁Edwin	-11.4935
▁Armenia	-11.4937
▁directing	-11.4937
▁Protection	-11.4943
▁editing	-11.4944
▁Berg	-11.4944
▁chess	-11.4947
▁bath	-11.4947
▁slip	-11.4952
▁testimon	-11.4953
▁wonderful	-11.4959
▁discharge	-11.4962
▁antagonist	-11.4964
▁certification	-11.4968
▁Caesar	-11.4969
cc	-11.4971
▁percussion	-11.4972
nam	-11.4974
▁152	-11.4974
▁finger	-11.4974
▁Nad	-11.4974
▁examine	-11.4978
▁honors	-11.4982
▁Thunder	-11.4983
▁mentions	-11.4984
ichi	-11.4984
drawn	-11.4985
▁pot	-11.4987
▁Bru	-11.4988
▁terrorist	-11.499
▁membrane	-11.4992
▁confin	-11.4999
▁topic	-11.5
▁honorar	-11.5002
▁Din	-11.5002
▁Chairman	-11.5006
▁sporting	-11.5006
▁AllMusic	-11.5008
▁disappointment	-11.5009
▁refit	-11.5009
▁Busch	-11.5014
▁Crew	-11.5014
▁Panther	-11.5017
▁welcome	-11.5019
▁270	-11.5021
▁Masters	-11.5024
▁trophy	-11.5026
erson	-11.503
▁copyright	-11.5033
▁Emily	-11.5036
▁retire	-11.5042
▁Luis	-11.5042
▁Cong	-11.5042
▁108	-11.5044
▁anonymous	-11.5045
▁delet	-11.5048
▁Rhine	-11.5052
▁enlarg	-11.5057
aging	-11.5062
▁transformation	-11.5062
▁112	-11.5065
▁Paramount	-11.5066
▁NL	-11.5066
25	-11.507
▁icon	-11.507
▁na	-11.5072
▁offshor	-11.5072
▁subordinate	-11.5073
hem	-11.5075
▁Bear	-11.5075
▁Garfield	-11.5076
eau	-11.5077
▁trap	-11.5078
▁liver	-11.5079
▁jumping	-11.5082
▁Online	-11.5082
vel	-11.509
▁Maurice	-11.5091
▁Hy	-11.5092
▁mall	-11.5095
bach	-11.5095
zz	-11.5097
▁ironclad	-11.5099
▁rumour	-11.5099
▁tide	-11.51
wo	-11.5108
▁thriller	-11.5108
▁panels	-11.5111
13	-11.5113
▁Crane	-11.5113
AC	-11.5114
▁clause	-11.5115
▁relevan	-11.5116
▁Bla	-11.5118
▁backup	-11.5122
▁Tr	-11.5123
▁Mix	-11.5124
▁Junction	-11.5124
▁compare	-11.5124
▁Arctic	-11.5124
▁Yet	-11.5129
▁Laura	-11.513
▁Louise	-11.5131
▁Wings	-11.5132
▁decree	-11.5134
▁Mina	-11.5135
FC	-11.5137
mark	-11.5138
▁Mun	-11.514
▁Peak	-11.5142
▁Toy	-11.5143
▁rulers	-11.5145
▁Hanna	-11.5146
▁Formula	-11.5147
▁metropolitan	-11.5149
ave	-11.5149
▁chapters	-11.5151
▁Spy	-11.5152
▁shrine	-11.5157
▁Sim	-11.5159
mond	-11.5159
▁1874	-11.5159
▁distract	-11.5162
aku	-11.5165
▁erosion	-11.5165
▁intensify	-11.5165
▁Alien	-11.5168
▁1848	-11.5169
▁balls	-11.5171
17	-11.5173
▁Windsor	-11.5174
▁Knights	-11.5175
▁arise	-11.5176
▁bullet	-11.5177
▁drown	-11.5178
▁Mongol	-11.518
▁speaker	-11.5181
▁align	-11.5181
▁nickel	-11.5182
▁Hat	-11.5183
▁rape	-11.5183
res	-11.5184
▁undergraduate	-11.5191
ulu	-11.5192
▁Nicola	-11.5192
▁quantit	-11.5194
how	-11.5196
▁rec	-11.5196
▁secular	-11.5199
▁pos	-11.5202
▁Corner	-11.5204
▁colonel	-11.5207
▁tennis	-11.5208
21	-11.5208
right	-11.5211
tti	-11.5211
▁decommission	-11.5216
▁Holly	-11.5217
ati	-11.5217
rr	-11.5219
▁Hopkins	-11.5224
▁Irving	-11.5226
▁Cop	-11.5228
▁poly	-11.523
▁discussions	-11.5232
▁plastic	-11.5233
▁Michelle	-11.5236
▁reserves	-11.5238
▁riff	-11.5238
▁plutoni	-11.5241
▁reservoir	-11.5241
zy	-11.5241
▁Holmes	-11.5244
▁Mana	-11.5245
▁Axi	-11.5247
▁worried	-11.5248
▁unhapp	-11.5249
▁Pierce	-11.5252
▁specifi	-11.5252
WA	-11.5253
▁Variet	-11.5256
▁Partisan	-11.5258
▁tasks	-11.5258
▁vein	-11.5263
▁FM	-11.5266
▁diving	-11.5266
▁Hour	-11.5268
▁Woods	-11.5271
▁silence	-11.5271
▁gland	-11.5274
iki	-11.5277
▁reserved	-11.5277
▁item	-11.5278
39	-11.5283
▁Argentine	-11.5283
▁disagreement	-11.5284
▁investor	-11.5285
▁Ven	-11.5286
▁Martha	-11.5288
▁Case	-11.5289
▁Turnpike	-11.5292
▁Global	-11.5292
▁Stalin	-11.5292
▁activat	-11.5294
▁Arabic	-11.5294
12	-11.5295
▁contestant	-11.5303
▁vampire	-11.5303
▁speeds	-11.5304
▁concentrate	-11.5309
▁tongue	-11.5309
▁Cool	-11.5311
▁Cad	-11.5312
▁Block	-11.5312
▁Manor	-11.5315
aga	-11.5315
lash	-11.5317
▁Face	-11.5318
▁teenage	-11.5319
▁counsel	-11.5324
▁SH	-11.5325
▁groove	-11.5325
▁baron	-11.5329
▁Rhodesia	-11.5331
▁geographical	-11.5333
▁luck	-11.5334
▁compact	-11.5334
RA	-11.5334
▁Stanford	-11.5335
horn	-11.5343
▁lease	-11.5343
▁Spiel	-11.5343
▁identification	-11.5343
▁Rhode	-11.5344
chen	-11.5345
▁uncover	-11.5353
▁oxide	-11.5356
▁Moor	-11.5357
▁Claire	-11.5359
▁Snake	-11.5359
▁diagnosed	-11.5365
ternet	-11.5368
▁Any	-11.5368
▁Gerald	-11.5368
▁Presley	-11.5368
▁cr	-11.5369
▁fox	-11.5369
▁210	-11.537
▁Mos	-11.537
iest	-11.5373
▁Basin	-11.5374
▁Willis	-11.5377
▁Iceland	-11.5377
▁instructor	-11.5379
▁lakes	-11.5381
▁feat	-11.5381
▁SpongeBo	-11.5385
▁electoral	-11.5388
▁Stefani	-11.5388
▁fusion	-11.5389
ink	-11.5392
▁Paper	-11.5393
▁counterattack	-11.5394
▁pyramid	-11.5394
▁naked	-11.5394
tsu	-11.5395
▁lo	-11.5397
▁reflection	-11.5398
▁seize	-11.5399
▁hectare	-11.5402
▁garage	-11.5402
▁haul	-11.5404
▁prop	-11.5407
erman	-11.541
▁witch	-11.541
▁Member	-11.5411
▁rounded	-11.5413
▁Observer	-11.5414
▁loading	-11.5415
▁writings	-11.542
▁lineup	-11.5422
▁Bulgaria	-11.5423
inus	-11.5424
▁Jennings	-11.5428
▁funnel	-11.5428
▁145	-11.5429
▁pirate	-11.543
▁Row	-11.5431
▁Recreation	-11.5436
▁Glenn	-11.5441
bon	-11.5442
▁Ze	-11.5442
▁Form	-11.5443
▁Soundtrack	-11.5445
▁1851	-11.5447
▁bedroom	-11.5454
▁comprehensive	-11.5454
▁Chapman	-11.5454
ico	-11.5459
▁Warwick	-11.546
ert	-11.546
▁terribl	-11.5462
▁Delhi	-11.5463
▁Cam	-11.5464
ometric	-11.5467
▁woods	-11.5469
71	-11.547
▁Beside	-11.5471
beat	-11.5474
▁Mk	-11.5479
▁lodge	-11.5479
▁bread	-11.5483
▁131	-11.5484
▁waterline	-11.5485
▁plead	-11.5487
stock	-11.549
▁violat	-11.5492
ites	-11.5493
▁Mari	-11.5494
▁coloured	-11.5499
▁marsh	-11.55
▁Broadcasting	-11.55
▁terror	-11.55
▁Advance	-11.5502
king	-11.5503
▁Gone	-11.5505
▁accent	-11.5505
▁fertil	-11.5507
hil	-11.5508
posed	-11.5508
▁AL	-11.551
▁hire	-11.5511
▁Living	-11.5512
▁unofficial	-11.5514
hal	-11.5518
▁Booth	-11.5519
▁solve	-11.5522
▁mathematical	-11.5522
▁Universe	-11.5523
hin	-11.5523
▁Bueno	-11.5524
▁Castro	-11.5525
▁disk	-11.5527
▁Nichols	-11.5527
▁landings	-11.5528
▁comparabl	-11.5528
▁centimetre	-11.5531
▁Jeffrey	-11.5531
▁Singer	-11.5537
hl	-11.5537
▁Southampton	-11.554
▁await	-11.554
ction	-11.5542
▁Outside	-11.5545
ene	-11.5545
▁compensation	-11.5549
▁Baptist	-11.555
char	-11.5552
▁Gor	-11.5553
▁Hipp	-11.5553
▁Others	-11.5555
▁Alternative	-11.5557
▁turtle	-11.5557
▁Poll	-11.5558
▁Hayes	-11.556
▁Dominican	-11.5561
▁Mas	-11.5562
▁Chang	-11.5564
▁sacred	-11.5566
▁Pilot	-11.5566
▁Nathan	-11.5568
nde	-11.5568
▁genes	-11.5571
▁Fletcher	-11.5575
▁Lightning	-11.5575
▁Berry	-11.5577
▁Venus	-11.558
▁Ob	-11.5583
▁Prussian	-11.5587
sville	-11.5587
canal	-11.5589
▁revision	-11.5591
▁Pit	-11.5592
▁pan	-11.5592
▁André	-11.5593
▁resume	-11.5595
▁Comic	-11.5602
▁Borough	-11.5602
▁Bah	-11.5602
▁Annie	-11.5607
▁Shore	-11.5608
▁intersections	-11.5608
▁amazing	-11.5611
▁Patton	-11.5614
▁wagon	-11.5618
▁corpse	-11.5619
▁Kenny	-11.5619
▁drainage	-11.5619
ison	-11.5623
ending	-11.5633
▁Concert	-11.5636
enburg	-11.5636
▁quant	-11.5637
some	-11.5637
▁freight	-11.5638
▁fl	-11.5638
can	-11.5643
phy	-11.5644
▁Ferrari	-11.5644
▁Hear	-11.5648
▁propose	-11.5649
▁Senators	-11.5651
die	-11.5651
▁mandat	-11.5651
▁eleventh	-11.5651
▁Luc	-11.5651
▁denounc	-11.5653
▁dorsal	-11.5653
▁midnight	-11.5655
▁upward	-11.5656
▁entertaining	-11.5658
▁Bolton	-11.5667
▁PS	-11.567
▁lights	-11.567
▁mosque	-11.5671
▁backward	-11.5671
▁Porter	-11.5672
▁lemur	-11.5673
▁comet	-11.5676
▁torture	-11.5678
▁Eisenhower	-11.568
▁coffee	-11.568
▁Flag	-11.5681
▁Style	-11.5683
▁choos	-11.5684
▁Syrian	-11.5684
▁Kiss	-11.5685
▁Johann	-11.5686
nia	-11.5686
▁em	-11.5686
▁mistaken	-11.5688
▁Retriev	-11.5688
▁collid	-11.5688
▁Daniels	-11.5689
▁Marco	-11.569
▁zoo	-11.569
▁bassist	-11.5693
▁Artillery	-11.5697
▁nests	-11.5698
▁280	-11.57
▁expell	-11.57
▁bars	-11.5701
▁diary	-11.5701
▁maker	-11.5704
▁sophisticat	-11.5706
▁unpopular	-11.5706
▁Pirates	-11.5709
▁reunit	-11.571
▁contributor	-11.5716
▁reprint	-11.5716
▁Wat	-11.5716
▁EU	-11.5717
▁tours	-11.5719
▁monks	-11.572
▁rotat	-11.5723
▁Distinguish	-11.5724
▁Guadal	-11.5724
▁Rugby	-11.5724
together	-11.5724
beit	-11.5725
xtant	-11.5728
mas	-11.5729
▁placement	-11.573
▁Rare	-11.573
▁103	-11.5732
▁painter	-11.5732
▁experts	-11.5733
▁foul	-11.5734
▁Jesse	-11.5734
▁Lords	-11.5735
▁Sometime	-11.5735
▁mob	-11.5737
▁Cave	-11.5739
▁mint	-11.5739
▁Truth	-11.574
▁convincing	-11.5741
▁manor	-11.5747
▁Ode	-11.5748
▁Rhodesian	-11.5749
▁punch	-11.575
▁shooter	-11.575
▁Vince	-11.5752
▁swamp	-11.5752
29	-11.5755
▁toxic	-11.5756
▁Treasury	-11.5759
▁flashback	-11.5759
lumni	-11.576
▁exciting	-11.5763
▁leather	-11.5768
grad	-11.5769
▁Lodge	-11.5769
onso	-11.5773
▁accurac	-11.5777
▁capabilit	-11.5779
▁basement	-11.5786
▁diseases	-11.5786
▁negotiate	-11.5786
▁Nebraska	-11.5794
▁promising	-11.5798
borough	-11.5798
▁sh	-11.5799
▁outline	-11.5799
▁Warsaw	-11.58
▁Doug	-11.5804
▁hanging	-11.5805
▁contend	-11.5806
▁dragon	-11.5807
64	-11.5811
▁Neptune	-11.5812
▁AIDS	-11.5812
▁Ferguson	-11.5813
▁forgot	-11.5813
urism	-11.5814
▁Dodger	-11.5816
ides	-11.5816
▁intentional	-11.5824
▁defect	-11.5825
▁Engineer	-11.5826
▁coaster	-11.5827
▁refuge	-11.5829
▁spite	-11.5829
▁fever	-11.583
▁neo	-11.583
▁demon	-11.583
▁limestone	-11.583
▁Sussex	-11.583
▁370	-11.5831
23	-11.5835
▁VH	-11.5836
▁Gaza	-11.5837
▁Bangladesh	-11.5839
▁hazard	-11.5839
▁Nord	-11.5839
▁disturb	-11.584
ways	-11.5844
▁socialist	-11.5847
▁Laf	-11.5848
▁homage	-11.5848
▁barrack	-11.5848
▁Hispanic	-11.5857
▁Pas	-11.586
▁errors	-11.5863
▁Lucy	-11.5865
▁Easter	-11.5866
▁Source	-11.5866
▁Columbus	-11.5867
▁tribal	-11.5867
▁evacuate	-11.5868
▁Serbs	-11.5872
▁stomach	-11.5875
win	-11.5875
▁Reynolds	-11.5875
▁negotiated	-11.5876
▁Close	-11.5879
▁clergy	-11.5879
▁cultivat	-11.5882
▁Rice	-11.5883
▁Taxonom	-11.5884
▁marble	-11.5884
▁administrator	-11.5884
▁goalkeeper	-11.5884
▁Kon	-11.5887
court	-11.5888
▁invention	-11.5889
▁Morton	-11.5891
▁sanction	-11.5894
▁expir	-11.5895
uli	-11.5898
▁robot	-11.5899
▁ages	-11.5901
▁cantata	-11.5902
▁Hip	-11.5905
87	-11.5908
▁vault	-11.5911
▁presid	-11.5915
▁Raja	-11.5916
▁hate	-11.592
▁consumed	-11.5923
▁Scotia	-11.5925
▁Gas	-11.5929
season	-11.5929
▁suburban	-11.5932
▁planes	-11.5932
▁Vic	-11.5937
▁evolutionar	-11.5937
▁nobility	-11.5938
pol	-11.5941
▁utter	-11.5941
▁overlap	-11.5945
ception	-11.5946
▁seizure	-11.5947
née	-11.5947
▁Munich	-11.5947
▁Franz	-11.5948
cla	-11.5949
▁Lex	-11.5951
▁Lithuania	-11.5951
▁Ship	-11.5953
▁incorrect	-11.5956
▁Pet	-11.5958
▁Stop	-11.5959
▁mentor	-11.5962
▁blown	-11.5963
▁storey	-11.5964
▁Jin	-11.5965
▁constituenc	-11.5965
▁enforcement	-11.5966
▁shipyard	-11.5967
▁Beyond	-11.5968
▁Dart	-11.597
▁innovative	-11.5974
▁imprisonment	-11.5975
▁poster	-11.5978
▁Swan	-11.5978
▁ch	-11.5982
▁twelfth	-11.5983
▁referendum	-11.5992
▁shale	-11.5992
aged	-11.5993
rop	-11.5995
▁Card	-11.5999
▁hostage	-11.6001
▁informal	-11.6003
wine	-11.6007
▁Kur	-11.6008
ela	-11.6009
▁suspicion	-11.601
▁incorporat	-11.6013
ash	-11.6015
▁cow	-11.6016
nce	-11.6018
▁Hebrew	-11.6019
▁refin	-11.602
▁Popular	-11.602
▁analog	-11.602
▁crater	-11.6021
▁limitations	-11.6022
▁Costa	-11.6022
▁imagin	-11.6024
50	-11.6032
hen	-11.6032
▁Salis	-11.6033
▁honours	-11.6036
▁proven	-11.604
mel	-11.6041
▁seasonal	-11.6042
▁desir	-11.6045
▁260	-11.6046
▁parasite	-11.6047
▁Dawn	-11.6047
▁maneuvers	-11.6047
▁bio	-11.6052
▁Hammond	-11.6056
▁chronicle	-11.6056
▁maturity	-11.6057
▁farms	-11.6057
▁bonds	-11.6059
▁tool	-11.606
▁Linda	-11.6063
▁renown	-11.6065
▁commerce	-11.6065
▁scope	-11.6066
▁Lois	-11.6066
▁missiles	-11.6068
▁municipality	-11.6068
▁Ren	-11.607
nik	-11.6071
▁comfort	-11.6071
smith	-11.6072
▁Plann	-11.6074
▁Derek	-11.6075
▁Rhys	-11.6075
▁Southeast	-11.6077
lus	-11.6081
take	-11.6083
▁Sunderland	-11.6083
▁Attack	-11.6083
▁Chapter	-11.6083
▁Pier	-11.6084
sex	-11.6087
▁Blaine	-11.6087
▁Eugene	-11.6087
▁happi	-11.6087
▁Apart	-11.6089
▁orbital	-11.609
▁Athenian	-11.6092
▁democrac	-11.6092
▁Volume	-11.6092
▁Volt	-11.6093
▁Cle	-11.6095
▁Java	-11.6097
▁determin	-11.6098
▁illustrations	-11.6104
▁1859	-11.6104
▁fortifi	-11.6106
▁Wei	-11.6107
EF	-11.6109
▁bold	-11.611
▁Beast	-11.6111
▁guitars	-11.6111
DS	-11.6112
▁amino	-11.6113
▁chicken	-11.6113
nell	-11.6115
▁Pot	-11.6117
▁welcom	-11.6117
▁communicate	-11.6119
▁Bun	-11.6119
stra	-11.6122
▁Robertson	-11.613
▁adaptations	-11.613
▁Sy	-11.6132
▁Motor	-11.6133
▁bin	-11.6137
▁genius	-11.6138
▁miner	-11.6139
▁Maple	-11.614
▁virtue	-11.6147
▁balloon	-11.6148
▁diagnosi	-11.6157
▁rendition	-11.6157
▁Cecil	-11.6157
▁vector	-11.6157
▁Midland	-11.616
▁subsidiary	-11.6166
▁preview	-11.6167
arrow	-11.617
▁sink	-11.617
▁organs	-11.6172
▁efficiency	-11.6177
star	-11.6178
▁reliabl	-11.6182
▁protective	-11.6184
▁Fraser	-11.6185
▁Hugo	-11.6186
▁Palestinian	-11.6186
▁Joyce	-11.6187
▁explod	-11.619
▁topics	-11.6191
▁Survey	-11.6192
▁AP	-11.6193
▁Rapid	-11.6193
▁Canberra	-11.6194
▁triangle	-11.6194
▁decease	-11.6194
▁invite	-11.6194
▁Primar	-11.6198
▁preservation	-11.6199
cut	-11.6201
▁MS	-11.6203
▁animator	-11.6209
▁deficit	-11.6212
▁Winchester	-11.6212
▁correspondence	-11.6213
▁cement	-11.6215
▁Lesser	-11.6216
chan	-11.6217
▁Hamburg	-11.622
▁pigeon	-11.6221
▁1845	-11.6226
chu	-11.6228
▁variet	-11.6228
▁117	-11.6232
▁tyre	-11.6232
▁societies	-11.6233
croft	-11.6236
▁binding	-11.6237
▁Guards	-11.6238
▁procedures	-11.6239
▁disco	-11.624
▁acute	-11.6241
▁Danub	-11.6241
▁senator	-11.6243
▁adoption	-11.6247
▁Krishna	-11.6249
▁Willie	-11.6249
▁mouse	-11.6249
▁summary	-11.625
ben	-11.6251
kov	-11.6251
▁screens	-11.6256
arch	-11.6258
▁Jenna	-11.626
▁Brighton	-11.6261
▁axis	-11.6263
▁dig	-11.6264
▁Joel	-11.6264
▁Barr	-11.6265
▁sweep	-11.6266
▁Calvin	-11.6267
▁sprint	-11.6273
▁relieve	-11.6274
rez	-11.6276
matic	-11.6276
▁Philippine	-11.6279
▁Quinn	-11.6279
▁safely	-11.628
▁powder	-11.628
▁fraud	-11.6287
▁indication	-11.6287
▁collaborator	-11.6289
10	-11.6295
▁contrary	-11.6296
▁sexuality	-11.6296
▁Alexandria	-11.6299
▁findings	-11.6299
▁amend	-11.6301
▁keyboard	-11.6301
▁Minne	-11.6303
▁Timberlake	-11.6305
▁plug	-11.6306
▁breakdown	-11.6307
▁tin	-11.6308
▁operas	-11.6308
▁Ac	-11.631
▁speakers	-11.6311
▁Bil	-11.6312
72	-11.6313
▁HIV	-11.6315
▁Holocaust	-11.6315
▁interface	-11.6315
▁adviser	-11.6323
▁relax	-11.6324
▁Assistant	-11.6324
▁Lenin	-11.6328
▁cats	-11.6329
▁Rip	-11.633
eaten	-11.633
▁Films	-11.6332
ges	-11.6333
▁trunk	-11.6333
▁sympath	-11.6335
▁dispers	-11.6339
▁Omaha	-11.6343
▁Karen	-11.6343
▁fears	-11.6344
pper	-11.6344
RC	-11.6345
▁Petersburg	-11.6347
▁fa	-11.6351
▁modes	-11.6352
▁heaven	-11.6352
▁Woll	-11.6356
▁saint	-11.6356
▁Peru	-11.6358
▁Racing	-11.636
rian	-11.636
▁utilit	-11.6361
▁subtle	-11.6365
73	-11.6365
▁juvenile	-11.6366
▁Put	-11.6366
ute	-11.6367
▁excavat	-11.6369
▁Portsmouth	-11.6371
▁brass	-11.6372
▁Norton	-11.6374
▁atoms	-11.6374
▁Kemp	-11.6377
cin	-11.638
▁Ski	-11.638
▁scream	-11.638
▁Bailey	-11.6381
▁Witch	-11.6382
▁Giant	-11.6382
▁Tank	-11.6384
▁Que	-11.6386
▁availability	-11.6386
nar	-11.6387
▁torn	-11.6389
▁1200	-11.6392
▁Information	-11.6399
▁Destin	-11.6402
▁Toward	-11.6404
agh	-11.6404
▁Tall	-11.6407
▁nominal	-11.6409
▁Wolverine	-11.6409
▁striker	-11.641
▁tackle	-11.6411
▁Evan	-11.6416
▁emigrat	-11.6418
▁contaminat	-11.6418
▁excited	-11.642
▁hyper	-11.6421
▁constitute	-11.6423
▁lobby	-11.6423
▁calendar	-11.6428
▁emphasize	-11.6431
▁Singh	-11.6431
▁Aircraft	-11.6433
▁Found	-11.6435
▁Pont	-11.6437
Spot	-11.6442
▁dose	-11.6445
▁keyboards	-11.6445
▁Elliott	-11.6445
▁hymn	-11.6447
▁Dayton	-11.6448
ema	-11.6449
▁Change	-11.6449
▁Torres	-11.6455
pen	-11.6456
▁Forbes	-11.6457
▁veto	-11.6457
hom	-11.6457
▁Im	-11.6462
▁Tel	-11.6464
▁Sicily	-11.6466
▁Duchess	-11.6466
▁citizenship	-11.6466
▁Webber	-11.6467
▁relegat	-11.6473
▁determination	-11.6477
▁Associat	-11.6477
▁poisoning	-11.6479
▁dominate	-11.6479
▁Places	-11.6479
▁rode	-11.6484
▁puppet	-11.6485
▁concluding	-11.6485
▁controll	-11.6485
▁Neu	-11.6486
▁profits	-11.6489
▁Bert	-11.6489
▁114	-11.6491
▁comedian	-11.6492
▁plaque	-11.6494
▁ESPN	-11.6494
▁Gamepla	-11.6495
▁Given	-11.6499
▁gentle	-11.6503
▁Austen	-11.6504
▁Fiction	-11.6504
▁Saw	-11.6504
▁1820	-11.6509
▁Hoffman	-11.6509
▁generator	-11.651
▁televis	-11.6511
▁Durham	-11.6513
▁gospel	-11.6513
▁endangered	-11.6515
▁generations	-11.6515
▁performer	-11.6516
PC	-11.6517
▁SMS	-11.6519
98	-11.6519
▁Bern	-11.652
▁predecessors	-11.6521
▁define	-11.6522
▁Chen	-11.6523
▁Lynn	-11.6525
▁countryside	-11.6527
lit	-11.6528
▁oral	-11.6528
burgh	-11.653
▁Wick	-11.6531
▁sympathetic	-11.6533
▁studios	-11.6533
▁Pepper	-11.6533
IAA	-11.6536
stuck	-11.6541
▁Gardner	-11.6542
▁Productions	-11.6543
▁tear	-11.6544
▁pub	-11.6544
aker	-11.6551
▁Mumbai	-11.6552
▁terrestrial	-11.6552
onia	-11.6552
lt	-11.6552
room	-11.6554
▁starter	-11.6557
▁alteration	-11.6559
▁Direct	-11.6565
▁primitive	-11.6571
▁maritime	-11.6572
▁workshop	-11.6572
▁....	-11.6572
view	-11.6578
▁chances	-11.6578
▁floors	-11.6581
▁ceremonial	-11.6583
▁Gardens	-11.6586
▁dominan	-11.6586
▁eject	-11.6587
NC	-11.6589
▁Speed	-11.6589
▁trilog	-11.659
▁retir	-11.6591
▁Crash	-11.6593
nig	-11.6593
▁wrapp	-11.6594
▁Data	-11.6599
▁reservation	-11.66
▁Jazz	-11.66
▁implementation	-11.6605
RS	-11.6607
▁Wang	-11.6608
▁Bahamas	-11.6609
▁coral	-11.6609
▁conn	-11.6611
▁dur	-11.6611
wy	-11.6612
TS	-11.6613
▁skiing	-11.6615
▁announce	-11.6617
▁enforc	-11.6618
▁Sto	-11.6618
▁superstructure	-11.6619
▁dump	-11.662
▁Prussia	-11.6625
▁slide	-11.6628
▁bills	-11.6628
▁Monica	-11.6629
69	-11.663
lag	-11.6631
▁Crow	-11.6631
ingham	-11.6631
▁mann	-11.6637
▁Savage	-11.6639
▁melt	-11.6639
▁Commodore	-11.6639
kie	-11.6641
▁Bran	-11.6644
▁Mah	-11.6645
▁characteris	-11.6645
▁Vocal	-11.6646
▁Pearson	-11.6648
▁badge	-11.6649
▁northeastward	-11.6649
▁narrator	-11.6651
▁Bomb	-11.6651
▁Rise	-11.6653
▁coincid	-11.6657
▁draws	-11.6657
▁Distribution	-11.6658
▁Tampa	-11.6658
▁Cruz	-11.6661
▁1854	-11.6661
▁lunch	-11.6667
▁Lopez	-11.6668
▁IX	-11.6668
▁consultant	-11.6668
▁gu	-11.6671
▁Guest	-11.6671
▁oppose	-11.6672
▁clever	-11.6673
▁Kl	-11.6678
▁jewel	-11.6679
▁Angela	-11.668
▁1857	-11.668
▁Jose	-11.6682
▁symbolic	-11.6684
are	-11.6684
▁brutal	-11.6686
▁bra	-11.6688
▁frustrated	-11.6689
▁Need	-11.6691
▁Lar	-11.6691
▁advertise	-11.6694
▁ancestors	-11.6697
ui	-11.6697
▁Iraqi	-11.6698
▁distress	-11.6698
▁Maxim	-11.67
▁Producer	-11.6701
▁motivation	-11.6702
AT	-11.6704
57	-11.6705
hra	-11.6705
93	-11.6706
▁submission	-11.6706
▁121	-11.6707
▁NME	-11.6707
▁prominence	-11.6716
▁augment	-11.6716
▁Newark	-11.6716
▁Private	-11.6716
▁Bee	-11.6717
▁Tam	-11.6722
▁precursor	-11.6726
▁Wong	-11.6726
elda	-11.6728
▁Diana	-11.673
▁satisfied	-11.6732
▁Denis	-11.6733
▁businessman	-11.6733
▁gambl	-11.6736
▁Rovers	-11.6742
▁kit	-11.6743
▁encompass	-11.6745
▁McMahon	-11.6745
▁overthrow	-11.6745
▁thermal	-11.6746
▁democratic	-11.6746
▁Kir	-11.6747
▁Kay	-11.6748
▁Have	-11.6749
54	-11.6753
▁contingent	-11.6755
▁flourish	-11.6756
cio	-11.6756
▁Mick	-11.6762
▁Ré	-11.6762
BC	-11.6764
▁merge	-11.6764
▁Georgian	-11.6764
▁immigration	-11.6766
▁helicopters	-11.6766
▁suite	-11.6767
▁smart	-11.6767
▁Thi	-11.6767
bit	-11.6773
hor	-11.6774
▁Dana	-11.6781
▁buses	-11.6782
▁prediction	-11.6784
▁Joshua	-11.6785
▁Holden	-11.6787
▁lung	-11.6795
▁Methodist	-11.6795
▁imagination	-11.6796
▁Environmental	-11.68
▁farmland	-11.6802
not	-11.6808
▁commemorat	-11.6808
▁shortened	-11.6809
▁burden	-11.6814
oka	-11.6817
▁tar	-11.6819
▁Barber	-11.6823
▁inspection	-11.6827
▁banner	-11.6831
▁Lyon	-11.6832
▁Browns	-11.6833
aya	-11.6834
hold	-11.6836
▁tracking	-11.6836
▁suburbs	-11.6843
▁Dame	-11.6843
▁displacement	-11.6844
ister	-11.6845
▁systematic	-11.6846
▁worsen	-11.6846
▁stopping	-11.6849
▁median	-11.685
▁morale	-11.6854
▁Net	-11.6855
▁recreational	-11.6857
▁Elder	-11.6858
▁graduation	-11.686
▁Claude	-11.6863
▁superhero	-11.6863
▁Ivy	-11.6865
▁restart	-11.6865
breaking	-11.6866
▁Def	-11.6866
TV	-11.6866
icken	-11.6867
hol	-11.6867
▁contradict	-11.6868
▁Engineers	-11.6869
▁owl	-11.6874
▁Phantom	-11.6883
▁compartment	-11.6883
▁overhaul	-11.6883
graph	-11.6885
chester	-11.6888
oz	-11.6893
lly	-11.6897
LL	-11.69
▁Spitfire	-11.6903
▁Gospel	-11.6903
▁Jar	-11.6904
▁Table	-11.6905
pot	-11.6906
▁landmark	-11.6907
▁illustrate	-11.6911
▁Knowles	-11.6913
▁Persona	-11.6915
▁isotopes	-11.6915
40	-11.6918
pin	-11.6919
▁surf	-11.692
buck	-11.6922
▁Immediate	-11.6923
▁Sergeant	-11.6923
ili	-11.6924
ott	-11.6925
▁Ashley	-11.6927
▁replica	-11.6928
amp	-11.6929
▁Meg	-11.693
46	-11.693
▁Kingston	-11.693
ywhere	-11.6933
▁enthusiasm	-11.6933
▁cu	-11.6935
▁glider	-11.6936
▁bite	-11.6936
▁unlock	-11.6936
eck	-11.6937
arm	-11.6939
▁Hannah	-11.694
▁observ	-11.6944
▁Look	-11.6945
xi	-11.6945
▁profession	-11.6947
ritten	-11.695
▁185	-11.695
throp	-11.695
ST	-11.6952
▁breakthrough	-11.6953
▁ideolog	-11.6954
▁brake	-11.6954
cht	-11.6957
▁vent	-11.6958
▁Cow	-11.6963
53	-11.6963
▁Adriatic	-11.6963
▁cancellation	-11.6963
▁registration	-11.6964
▁transmitt	-11.6964
olo	-11.6965
▁dedication	-11.6966
terim	-11.6966
▁hub	-11.6969
leigh	-11.6969
▁Yang	-11.6972
▁landslide	-11.6973
▁1858	-11.6975
born	-11.6976
▁Dot	-11.6977
▁Allan	-11.6978
▁Tur	-11.6978
▁isolation	-11.698
▁acids	-11.698
▁Dover	-11.6984
▁outlets	-11.6986
▁Reid	-11.6989
uit	-11.699
▁Antille	-11.6994
▁treasure	-11.6995
▁charm	-11.6996
▁orientation	-11.6997
▁patroll	-11.6997
▁Cut	-11.6997
▁Haven	-11.6999
▁bias	-11.7
▁spectrum	-11.7003
▁ballet	-11.7004
▁sandstone	-11.7004
▁Sugar	-11.7004
eh	-11.7005
▁gase	-11.7005
▁Broke	-11.7007
rock	-11.7009
▁abrupt	-11.7013
▁Avon	-11.7014
▁Interior	-11.7016
tory	-11.7021
▁antibod	-11.7021
▁Broad	-11.7022
▁affirm	-11.7023
▁Individual	-11.7023
▁rational	-11.7026
▁ears	-11.7026
▁brush	-11.7026
▁Patriot	-11.7028
▁dull	-11.7029
▁corrupt	-11.7031
▁innocent	-11.7032
▁contemporari	-11.7033
▁Medicine	-11.7034
▁Wheeler	-11.7036
▁Julia	-11.7038
▁Ny	-11.704
▁Lat	-11.7043
▁Fringe	-11.7045
cra	-11.7047
▁Literar	-11.7047
▁liken	-11.7052
▁vow	-11.7052
▁Betty	-11.7053
▁Hollow	-11.7055
▁Lyn	-11.7056
▁Pike	-11.7056
▁stripe	-11.7057
▁alloy	-11.7058
ayette	-11.7058
FR	-11.7058
▁View	-11.7059
nne	-11.7059
▁undertake	-11.706
▁mat	-11.7062
▁bred	-11.7063
▁swift	-11.7063
▁Amazon	-11.7063
▁dissent	-11.7063
▁kidney	-11.7065
▁Lie	-11.7065
▁1812	-11.7068
▁spy	-11.7071
self	-11.7072
▁spiral	-11.7073
▁Balkan	-11.7074
▁persona	-11.7077
playable	-11.7078
▁320	-11.7078
▁Event	-11.708
hole	-11.7082
esque	-11.7083
▁constellation	-11.7083
▁unwilling	-11.7084
▁entries	-11.7084
▁ministr	-11.7085
▁intimate	-11.7085
▁Left	-11.7085
slav	-11.7087
NT	-11.7088
▁Presidential	-11.7088
guel	-11.709
gna	-11.7091
dor	-11.7091
▁refusal	-11.7092
▁slopes	-11.7093
94	-11.7101
▁provok	-11.7101
rn	-11.7102
▁favourabl	-11.7102
▁technologies	-11.7104
▁550	-11.7105
▁Powers	-11.7106
▁consolidat	-11.7106
▁hell	-11.7109
▁plumage	-11.7115
▁Speaker	-11.7115
▁Agent	-11.7116
▁drag	-11.7122
▁doubled	-11.7123
▁Rutherford	-11.7124
▁Ant	-11.7124
▁compose	-11.7127
▁107	-11.7127
▁Gwen	-11.7128
▁insight	-11.7134
▁reasonable	-11.7134
▁nitrogen	-11.7134
▁grandmother	-11.7134
▁climax	-11.7134
▁devis	-11.7135
▁quantity	-11.7138
cle	-11.7139
▁Donna	-11.7141
ovich	-11.7142
▁XIII	-11.7142
▁Reg	-11.7142
▁medley	-11.7146
▁sovereignt	-11.7148
▁1849	-11.7149
rah	-11.715
▁umpire	-11.7151
▁Complete	-11.7151
▁solutions	-11.7153
▁tap	-11.7154
▁plaza	-11.7155
▁Visual	-11.7155
▁demolition	-11.7155
▁explorer	-11.7155
▁jacket	-11.7155
▁Sebastian	-11.7156
iel	-11.7156
▁Jain	-11.7157
▁opener	-11.7157
▁rubber	-11.7158
list	-11.7158
▁Rican	-11.7163
▁Barn	-11.7163
▁Brock	-11.7164
fold	-11.7165
▁Underground	-11.7166
▁offence	-11.7168
▁Maj	-11.7169
▁Limited	-11.7171
▁Halifax	-11.7175
▁Oppenheim	-11.7175
▁swallow	-11.7175
▁Crazy	-11.7175
▁Hutton	-11.7176
▁Shar	-11.7177
▁Writers	-11.7179
▁Carte	-11.718
▁gale	-11.7184
▁Horror	-11.7185
▁assumption	-11.7185
▁generic	-11.7185
59	-11.7186
▁Metroid	-11.7187
stable	-11.7187
▁flags	-11.7191
▁Arms	-11.7192
▁violin	-11.7193
▁continual	-11.7195
▁showcase	-11.7195
equality	-11.7195
▁inadequate	-11.7195
▁photos	-11.7196
▁Giro	-11.7197
▁Sharon	-11.7198
rant	-11.7203
▁Cod	-11.7203
osis	-11.7203
▁assign	-11.7204
▁occurrence	-11.7206
▁Saudi	-11.7206
▁casemate	-11.7207
▁variants	-11.721
▁projection	-11.7211
▁Dynasty	-11.7212
▁Disc	-11.7213
game	-11.7213
▁Screen	-11.7216
▁inferior	-11.7216
▁freestyle	-11.7216
▁Thailand	-11.7217
▁philosophical	-11.7217
▁Step	-11.7217
raz	-11.7218
▁Away	-11.722
▁118	-11.7225
cene	-11.7225
etti	-11.7227
SL	-11.7227
▁sitcom	-11.7228
▁Archer	-11.7229
▁enhance	-11.723
▁Drew	-11.7231
▁Level	-11.7231
sistence	-11.7232
▁controller	-11.7234
▁hamper	-11.7236
▁Freeway	-11.7238
▁retrieve	-11.7239
▁Blo	-11.7242
▁Vaugh	-11.7242
▁Inn	-11.7245
elfare	-11.7246
▁WrestleMania	-11.7247
▁Leaf	-11.7247
▁disput	-11.7247
▁Gran	-11.7248
▁practic	-11.7254
▁dwelling	-11.7256
▁Thorp	-11.7256
▁Trafford	-11.7257
▁embass	-11.7257
▁Reviewer	-11.726
▁revelation	-11.7268
▁Erie	-11.7268
▁siz	-11.7269
78	-11.7271
▁acknowledge	-11.7273
▁flie	-11.7275
▁ARIA	-11.7278
▁timing	-11.7279
▁discard	-11.728
wald	-11.7281
▁Idol	-11.7282
▁submit	-11.7283
▁Discovery	-11.7283
▁Vel	-11.7286
▁drawings	-11.7286
▁Rev	-11.7287
▁leap	-11.7288
▁prolong	-11.7289
gin	-11.7289
▁criteria	-11.729
▁Spa	-11.7295
▁seas	-11.7296
mun	-11.7296
▁slope	-11.7297
▁computers	-11.7297
▁supervisor	-11.7299
▁Bradford	-11.7302
▁mortar	-11.7303
▁digest	-11.7304
nant	-11.7304
▁vol	-11.7306
▁SAS	-11.7306
▁judg	-11.7306
▁Leg	-11.731
▁uncertaint	-11.7311
▁Afterwards	-11.7314
hara	-11.7317
▁Tina	-11.7317
▁improvis	-11.7318
▁sued	-11.7318
▁Norwich	-11.7319
▁Title	-11.7319
▁motive	-11.732
▁Wake	-11.7321
▁clinical	-11.7321
▁Wade	-11.7323
▁Soviets	-11.7324
▁premise	-11.7324
▁Mori	-11.7325
▁Chu	-11.7326
▁boarding	-11.7326
izing	-11.7328
▁deplet	-11.7329
▁trumpet	-11.7329
▁Zi	-11.733
vision	-11.7331
▁faithful	-11.7331
▁Lea	-11.7333
▁tract	-11.7335
▁organisations	-11.7335
▁warehouse	-11.734
▁hometown	-11.734
▁Jessica	-11.734
▁helmet	-11.734
poli	-11.7342
▁Jamie	-11.7344
▁Penguin	-11.735
▁Stewie	-11.735
▁Jen	-11.735
▁Gould	-11.735
▁calci	-11.7353
▁Twin	-11.7354
like	-11.7354
▁exceeding	-11.7358
▁Bio	-11.7359
▁Hir	-11.736
▁robber	-11.7362
▁Student	-11.7367
▁330	-11.7368
hn	-11.7371
▁Brittan	-11.7371
▁cage	-11.7371
▁freed	-11.7372
ova	-11.7375
▁recipient	-11.7378
▁tired	-11.7381
▁Combin	-11.7381
gr	-11.7382
▁Negro	-11.7392
ridge	-11.7395
▁Cope	-11.7396
▁Qa	-11.7401
▁Met	-11.7401
▁Rochester	-11.7403
▁discrimination	-11.7403
TC	-11.741
▁eager	-11.7413
▁chant	-11.7415
▁Pur	-11.7415
▁McG	-11.7416
▁sparse	-11.7417
▁Brother	-11.7419
aur	-11.742
▁Oil	-11.742
▁128	-11.7422
▁Gustav	-11.7423
▁202	-11.7424
▁Kara	-11.7427
▁hitter	-11.7427
▁flex	-11.7431
▁pretend	-11.7434
▁spar	-11.7437
▁Liu	-11.7445
front	-11.7445
▁Joker	-11.7447
▁Weber	-11.7449
▁Canadiens	-11.7454
▁Sei	-11.7455
▁enforce	-11.7456
▁Pol	-11.7458
▁Farmer	-11.7462
▁Lions	-11.7463
▁Mul	-11.7463
▁Full	-11.7464
▁Emine	-11.7464
achi	-11.7465
▁mess	-11.7469
▁132	-11.747
▁Prison	-11.7473
▁dolphin	-11.7476
▁automobile	-11.7476
▁cease	-11.7477
81	-11.748
▁Hick	-11.7481
▁Siege	-11.7483
▁AM	-11.7483
cellular	-11.7483
▁650	-11.7484
▁Must	-11.7485
▁ancestor	-11.7486
▁Sleep	-11.7486
▁Carpenter	-11.7486
▁Brunswick	-11.7486
box	-11.7486
▁archaeologist	-11.7489
▁iconic	-11.749
▁jungle	-11.7497
▁abstract	-11.7497
▁Happy	-11.7497
▁stamp	-11.7497
▁highlights	-11.7498
boy	-11.7498
▁Anders	-11.7499
rod	-11.75
odi	-11.75
▁marker	-11.75
▁Height	-11.7501
▁lecture	-11.7502
▁rectang	-11.7504
▁Spot	-11.7508
▁Myster	-11.7508
▁Hokie	-11.7511
én	-11.7512
cision	-11.7513
▁encouraging	-11.7514
▁gills	-11.7514
▁physicist	-11.7516
▁Cornell	-11.7518
▁Behind	-11.752
▁Fun	-11.7521
▁CIA	-11.7521
▁Lars	-11.7524
uf	-11.7528
▁Structure	-11.7528
▁gesture	-11.7528
▁nationwide	-11.7529
▁Von	-11.7529
▁fence	-11.753
▁Darre	-11.753
▁1852	-11.7531
▁mortality	-11.7531
▁manuscripts	-11.7531
▁thank	-11.7534
▁annex	-11.7537
▁Wyatt	-11.7539
▁Eagles	-11.754
▁Cohen	-11.754
▁Preparation	-11.754
▁AU	-11.754
▁Rey	-11.7544
▁Romans	-11.7546
▁Color	-11.7546
▁Hindi	-11.7549
▁medication	-11.755
▁Shakir	-11.755
▁Clear	-11.755
▁pipe	-11.755
▁choices	-11.7551
▁Boyd	-11.7552
▁Birds	-11.7554
▁regret	-11.7554
▁purple	-11.7555
▁Eu	-11.756
▁unrest	-11.756
▁spontaneous	-11.756
▁tiger	-11.7561
▁radioactive	-11.7561
▁cheer	-11.7561
▁nerve	-11.7562
▁Gates	-11.7563
▁Lance	-11.7564
▁tales	-11.7565
▁destin	-11.7566
▁Ot	-11.7568
▁chick	-11.7568
▁Evening	-11.7569
▁Hyde	-11.757
▁humid	-11.7571
▁ward	-11.7574
▁deadline	-11.7576
▁lament	-11.7577
ating	-11.7577
▁cricketer	-11.7581
▁Anglican	-11.7581
▁Thursday	-11.7581
▁amid	-11.7582
▁Julie	-11.7585
get	-11.7585
▁Gris	-11.7587
▁Wait	-11.7589
▁stereotype	-11.7591
▁Perfect	-11.7592
▁indoor	-11.7592
▁devastat	-11.7598
▁colonist	-11.7598
wal	-11.7598
idge	-11.76
▁revert	-11.7601
▁Better	-11.7603
gram	-11.7605
▁forbidd	-11.7606
▁Match	-11.7606
▁1847	-11.7607
▁chains	-11.7608
▁poetic	-11.7608
▁testifie	-11.7609
Reilly	-11.7613
▁cite	-11.7613
▁Shan	-11.7613
▁polish	-11.7613
▁perimeter	-11.7613
ES	-11.7614
▁confess	-11.7615
▁goaltender	-11.7615
▁gig	-11.7616
▁mutation	-11.7616
▁posts	-11.7617
▁reads	-11.7619
▁Len	-11.7619
▁Annual	-11.7624
▁reproduction	-11.7624
▁lab	-11.7624
▁accomplishment	-11.7626
▁Inde	-11.7627
▁facilitate	-11.7627
▁Core	-11.7628
▁gravel	-11.7631
▁Volunteer	-11.7635
▁foster	-11.7635
▁ACC	-11.7636
UP	-11.7638
▁Nolan	-11.7639
▁remnant	-11.7639
▁fog	-11.7641
▁capability	-11.7644
▁pa	-11.7645
▁monsoon	-11.7645
▁Harbour	-11.7645
▁Spect	-11.7648
▁betray	-11.765
▁particle	-11.7651
▁announc	-11.7653
▁Vita	-11.7654
▁AI	-11.7656
▁Fellow	-11.7656
▁Technical	-11.7657
▁denomination	-11.7657
▁Verde	-11.7657
▁Milton	-11.766
rom	-11.7669
▁clearing	-11.767
▁Pick	-11.767
ander	-11.7672
▁Louisville	-11.7673
▁Roth	-11.7677
▁Recent	-11.7678
uring	-11.7678
▁Heat	-11.768
▁labell	-11.768
▁122	-11.7682
▁melodi	-11.7683
▁adventures	-11.7684
▁sovereign	-11.7684
▁sensor	-11.7686
bul	-11.7688
▁Concern	-11.7688
▁breath	-11.7688
▁Lexington	-11.7688
▁Exe	-11.769
▁Greene	-11.7698
▁barn	-11.7702
▁1855	-11.7703
▁drunk	-11.7707
▁Less	-11.7708
▁hollow	-11.771
▁lady	-11.7711
▁Raven	-11.7711
▁Lebanon	-11.7711
▁1846	-11.7713
apoli	-11.7714
▁lord	-11.7715
▁lyric	-11.7717
▁116	-11.7719
▁Fight	-11.7719
▁abundance	-11.772
▁Forever	-11.7725
▁Fine	-11.7727
▁insect	-11.7727
97	-11.7728
bri	-11.7728
att	-11.7729
▁jam	-11.773
▁hung	-11.7731
▁Damascus	-11.7731
▁cottage	-11.7731
▁Fernand	-11.7733
▁App	-11.7735
▁Cover	-11.7735
▁Parks	-11.7736
▁analyst	-11.7737
▁coronation	-11.7742
▁Mai	-11.7742
▁bail	-11.7744
▁reply	-11.7748
▁Humphrey	-11.7753
▁Falcon	-11.7753
▁CM	-11.7753
▁alternat	-11.7759
▁viral	-11.776
zen	-11.7762
▁deer	-11.7764
▁Rupert	-11.7764
▁humour	-11.7764
▁offspring	-11.7764
▁stump	-11.7764
▁Brett	-11.7764
▁nesting	-11.7764
▁Strike	-11.7766
▁ethic	-11.7767
▁concurrenc	-11.7769
▁barge	-11.777
▁Vera	-11.7771
▁enterprise	-11.7775
PS	-11.7775
▁Hastings	-11.7775
▁exhibits	-11.7782
▁luxur	-11.7785
▁Hundred	-11.7785
▁unconscious	-11.7785
▁assured	-11.7789
▁devil	-11.7799
tta	-11.7801
▁beds	-11.7804
▁Kiel	-11.7804
▁Nan	-11.7805
▁orbits	-11.7806
▁miniature	-11.7807
▁Stockholm	-11.7807
▁resource	-11.7808
▁contractor	-11.7808
▁dreams	-11.7809
▁Speak	-11.781
01	-11.7811
▁IU	-11.7812
▁swim	-11.7813
▁cure	-11.7818
▁ingredient	-11.7818
▁victorious	-11.7818
▁Hampton	-11.7818
▁dioxide	-11.7818
▁Use	-11.7819
▁resemblance	-11.782
owski	-11.782
▁imply	-11.7821
▁Socialist	-11.7823
ame	-11.7827
▁Chetnik	-11.7829
▁Wend	-11.7829
▁Viking	-11.7831
▁diesel	-11.7832
▁rib	-11.7833
▁1832	-11.7833
CI	-11.7834
▁periodical	-11.7835
▁broadside	-11.7836
▁blog	-11.7836
▁definitive	-11.784
▁FC	-11.7841
etta	-11.7847
▁Sud	-11.7847
▁Halloween	-11.7862
▁ankle	-11.7862
▁Ober	-11.7862
▁crowds	-11.7868
▁developments	-11.7872
anu	-11.7872
▁Safety	-11.7873
▁grants	-11.7875
▁Jets	-11.7875
ht	-11.7876
▁dismissal	-11.7881
▁Sanskrit	-11.7884
▁reddish	-11.7884
▁Covenant	-11.7884
▁Specie	-11.7884
▁feedback	-11.7884
▁forget	-11.7884
▁Albanian	-11.7884
▁doll	-11.7888
▁palm	-11.7891
▁Gl	-11.7891
▁Language	-11.7894
▁oath	-11.7895
▁pagan	-11.7895
▁persistent	-11.7895
▁mourn	-11.7898
▁crossover	-11.7898
▁princess	-11.7902
▁Ern	-11.7902
atus	-11.7904
▁Thirty	-11.7905
▁dramatical	-11.7906
▁colleges	-11.791
orial	-11.7911
▁ni	-11.7919
▁Fuller	-11.792
▁cod	-11.7921
▁cooler	-11.7921
lle	-11.7921
▁bicycle	-11.7923
▁Cinema	-11.7926
nk	-11.7926
▁courage	-11.7926
▁livestock	-11.793
ache	-11.793
▁SA	-11.793
▁Gear	-11.7934
▁mari	-11.7934
▁Grande	-11.7934
▁Michaels	-11.7936
▁Give	-11.7937
▁intensive	-11.7938
atic	-11.794
▁humorous	-11.7941
wing	-11.7945
▁prose	-11.7946
▁Lim	-11.7947
▁Lanka	-11.7947
▁inevitabl	-11.7947
▁Worcester	-11.7949
▁intern	-11.7951
ecology	-11.7953
▁Luck	-11.7953
▁MI	-11.7955
▁conven	-11.7955
▁fragment	-11.7956
▁Bl	-11.7959
▁Brisbane	-11.7961
▁abbey	-11.7961
▁hiatus	-11.7961
▁Cedar	-11.7962
▁138	-11.7969
▁Yoshi	-11.7969
▁surpass	-11.7971
ace	-11.7971
▁Dy	-11.7972
▁empower	-11.7972
▁Galli	-11.7973
▁Nas	-11.7974
▁Animation	-11.7975
09	-11.7977
▁eighteenth	-11.7977
▁Aside	-11.7978
▁Henri	-11.7981
▁Scientific	-11.7983
▁Approximate	-11.7983
▁backdrop	-11.7983
▁cheek	-11.7983
▁Tara	-11.7989
▁elimination	-11.7991
▁smash	-11.7994
▁camouflage	-11.7994
▁Election	-11.7995
▁NA	-11.7995
▁remaster	-11.7998
▁arche	-11.7998
▁omitt	-11.7999
▁Cardinal	-11.7999
llen	-11.8
▁posthumously	-11.8001
▁peers	-11.8003
▁Saints	-11.8004
▁bike	-11.8004
▁pride	-11.8005
sworth	-11.8006
▁EMI	-11.8007
▁Yoko	-11.8011
▁Gott	-11.8013
▁murders	-11.8015
▁Andre	-11.8016
▁degenerat	-11.8016
▁sleeve	-11.8016
▁frontal	-11.8018
▁accusations	-11.802
▁Joy	-11.8021
▁Kind	-11.8022
▁Academic	-11.8027
▁Adolf	-11.8027
▁Wildlife	-11.8027
▁Animal	-11.8029
▁Raider	-11.8032
▁mating	-11.8033
▁Select	-11.8033
▁charting	-11.8035
▁Beatty	-11.804
pon	-11.8042
▁metaphor	-11.8049
▁Shackleton	-11.8049
▁profound	-11.8049
▁Conan	-11.805
▁constitut	-11.8052
▁Charter	-11.8053
oggett	-11.8053
▁boxes	-11.8053
▁heroine	-11.8059
▁replay	-11.806
▁penalt	-11.8061
▁combin	-11.8061
▁recipe	-11.8061
▁Az	-11.8061
▁Clan	-11.8063
▁1853	-11.8065
▁fires	-11.8067
▁141	-11.8071
▁guerrilla	-11.8072
pent	-11.8074
▁Winston	-11.8078
▁renovat	-11.8078
▁Seas	-11.8079
▁Yale	-11.8079
nie	-11.808
▁calculation	-11.8082
▁intervene	-11.8085
▁elevator	-11.8085
SO	-11.8087
▁Path	-11.8089
▁Mini	-11.8089
▁Wilm	-11.809
bell	-11.809
▁counterpart	-11.8091
olithic	-11.8093
▁Kai	-11.8095
▁tenant	-11.8095
▁rope	-11.8095
▁skilled	-11.8097
▁operators	-11.8099
22	-11.8105
▁stanza	-11.8105
▁drops	-11.8107
▁ancestr	-11.8108
▁Juliet	-11.8112
▁temper	-11.8113
cum	-11.8115
▁Cubs	-11.8117
▁Loch	-11.8117
▁makeup	-11.8118
▁Ran	-11.8121
▁melodic	-11.8122
74	-11.8123
bor	-11.8125
▁Mau	-11.8126
▁scratch	-11.8128
▁Orlando	-11.8128
▁stalk	-11.8128
▁molar	-11.8128
▁clone	-11.8134
▁trainer	-11.8134
▁surgeon	-11.8138
▁pistol	-11.8139
▁Ride	-11.8139
▁lineage	-11.814
▁statistical	-11.8141
▁Bent	-11.8146
Neill	-11.8147
▁Kre	-11.8148
▁Kapoor	-11.815
▁jealous	-11.815
▁thread	-11.815
▁froze	-11.815
▁Numero	-11.815
▁abortion	-11.8151
▁Remix	-11.8153
▁Sharp	-11.8156
▁fantastic	-11.8159
▁wildlife	-11.8162
▁Investigation	-11.8162
▁Supporting	-11.8166
▁Wool	-11.8167
▁doubles	-11.8171
credible	-11.8174
▁polls	-11.8177
▁Bergen	-11.8178
tia	-11.8179
▁Transit	-11.8182
▁module	-11.8184
top	-11.8184
▁Sul	-11.8186
ucci	-11.8191
▁119	-11.8193
▁Dexter	-11.8195
▁Seymour	-11.8195
▁adverse	-11.8195
▁curricul	-11.8202
▁Bod	-11.8203
▁periodic	-11.8204
▁Crisi	-11.8204
Cube	-11.8206
▁Yama	-11.8215
oke	-11.8216
▁var	-11.8216
▁unprecedented	-11.8218
▁solitar	-11.8218
▁complaint	-11.8219
▁Cherry	-11.822
▁1841	-11.8223
▁Bir	-11.8224
▁Believe	-11.8226
FL	-11.8227
▁Wilder	-11.8227
▁Being	-11.8229
▁Stern	-11.8229
▁Leopold	-11.8229
▁zinc	-11.8229
▁Warriors	-11.8229
▁Armour	-11.823
vy	-11.823
▁Oakland	-11.8233
▁Ak	-11.8233
▁sac	-11.8234
point	-11.824
▁kidnapp	-11.824
▁grenade	-11.824
▁framework	-11.8242
▁Dixon	-11.8242
▁Smart	-11.8242
▁shade	-11.8243
▁Shane	-11.8247
▁Mou	-11.8247
ender	-11.8248
asaki	-11.8252
▁Coalition	-11.8252
▁Knox	-11.8252
▁comparative	-11.8252
▁namely	-11.8256
▁comeback	-11.8257
▁Working	-11.8259
▁brood	-11.8263
▁courtyard	-11.8264
jan	-11.8266
▁descriptions	-11.8266
▁justifi	-11.8267
RT	-11.8269
▁limbs	-11.827
▁Andrea	-11.8272
▁novelist	-11.8274
▁certificate	-11.8275
▁cinematic	-11.8276
▁Albion	-11.8276
▁curse	-11.8277
▁Than	-11.8279
▁Campus	-11.8282
▁republic	-11.8283
▁Hemingway	-11.8286
▁Previous	-11.8286
kel	-11.8286
▁Welles	-11.8287
AR	-11.8288
vant	-11.829
woman	-11.8293
▁Deal	-11.8293
▁Belgrade	-11.8297
▁Arrow	-11.8298
▁Magnus	-11.83
▁Troop	-11.8301
continental	-11.8302
▁Baja	-11.8304
▁horns	-11.8305
▁dragg	-11.8306
▁tablet	-11.8306
▁reclaim	-11.8307
▁befriend	-11.8309
▁Sinatra	-11.8309
▁Carroll	-11.8309
▁optical	-11.831
pology	-11.8312
▁balanc	-11.8313
▁Casting	-11.8313
▁1844	-11.8314
▁resid	-11.8314
▁pond	-11.8314
▁Quarter	-11.8317
▁smell	-11.8321
▁frames	-11.8321
▁Fir	-11.8322
▁Mach	-11.8322
▁Erin	-11.8324
▁clusters	-11.8324
▁Pac	-11.8325
▁Wil	-11.833
▁fare	-11.8334
uchov	-11.8334
▁Tsar	-11.8334
▁bark	-11.8335
▁Made	-11.8337
▁Sad	-11.8338
▁digit	-11.834
▁Harding	-11.8342
▁Note	-11.8344
▁urging	-11.8344
▁shower	-11.8345
▁institute	-11.8345
▁patronage	-11.8345
▁Spur	-11.8351
▁frustration	-11.8355
▁satire	-11.8355
▁confession	-11.8358
▁oz	-11.8358
▁conscious	-11.8361
▁Vin	-11.8362
▁rubb	-11.8363
▁Haiti	-11.8365
▁fins	-11.8365
▁Blade	-11.8366
rina	-11.8368
▁liberat	-11.8368
▁Plain	-11.8368
▁gallon	-11.8368
▁Arc	-11.8371
▁overnight	-11.8371
▁integration	-11.8372
▁Wheel	-11.8374
cott	-11.8376
kind	-11.8379
▁Kannada	-11.8389
▁supernatural	-11.8389
▁pianist	-11.8389
▁weird	-11.8389
▁Sandy	-11.839
ele	-11.8392
▁Angels	-11.8393
▁dug	-11.8394
▁pile	-11.8397
oque	-11.8398
▁caps	-11.8398
▁Dre	-11.8398
▁gaso	-11.8398
▁tent	-11.8399
occer	-11.84
▁binar	-11.84
▁Dawson	-11.8401
▁chao	-11.8402
▁cheat	-11.8402
▁Cri	-11.8403
▁maiden	-11.8403
▁Estate	-11.8403
▁hinder	-11.8408
▁integral	-11.8409
▁beer	-11.841
▁synonym	-11.8411
▁Eyes	-11.8412
▁Pradesh	-11.8412
gau	-11.8414
ffer	-11.8415
▁listeners	-11.8415
▁Ferry	-11.8415
▁Victory	-11.8415
▁Rem	-11.8416
▁Mered	-11.8417
▁realism	-11.8418
▁turnpike	-11.8424
▁overturn	-11.8424
stair	-11.8424
▁catche	-11.8426
▁altar	-11.8429
▁Barton	-11.843
▁analyz	-11.8431
▁Kahn	-11.8431
TA	-11.8432
▁dealer	-11.8432
▁roofs	-11.8432
▁Sm	-11.8433
▁Gore	-11.8434
▁Getty	-11.8434
▁onset	-11.8435
▁Eleanor	-11.8435
▁Troy	-11.8437
▁1790	-11.8438
▁Wednesday	-11.8447
▁Wisden	-11.8447
lund	-11.8447
▁Challenge	-11.845
fused	-11.8451
▁MGM	-11.8451
peake	-11.8453
▁keeper	-11.8455
▁Self	-11.8456
▁facial	-11.8459
▁Guam	-11.846
▁McLaren	-11.846
▁dressing	-11.846
▁supervision	-11.8462
▁aunt	-11.8462
▁Bede	-11.8464
▁Ut	-11.8467
▁Dry	-11.8467
▁crazy	-11.847
▁Bronze	-11.847
▁Fey	-11.8477
▁Neo	-11.8479
▁Kit	-11.8481
▁Crime	-11.8481
▁congressional	-11.8482
▁maternal	-11.8482
▁overwhelm	-11.8487
▁laser	-11.8488
▁biology	-11.8489
▁chronic	-11.849
met	-11.8493
▁fond	-11.8494
▁ditch	-11.8494
▁Survivor	-11.8494
▁archbishop	-11.8494
mere	-11.8497
▁Ap	-11.8498
▁Present	-11.8503
▁defining	-11.8504
▁Valentine	-11.8505
▁tears	-11.8505
active	-11.8506
▁watche	-11.8508
▁Arabia	-11.8509
▁Colber	-11.8511
▁pap	-11.8512
▁dish	-11.8514
▁receptor	-11.8515
▁investigator	-11.8516
▁Amazing	-11.8517
▁tidal	-11.8517
▁asteroid	-11.8517
▁knife	-11.8517
▁persecution	-11.8518
▁1776	-11.852
▁Sci	-11.8526
meter	-11.8527
▁sided	-11.8528
▁gut	-11.8532
▁reside	-11.8533
KO	-11.8533
mal	-11.8536
rna	-11.8536
▁Telugu	-11.854
▁pillar	-11.8541
▁bust	-11.8543
▁Worker	-11.8543
▁slipp	-11.8543
▁scales	-11.8545
▁propulsi	-11.8547
▁gag	-11.8549
▁Faith	-11.8551
▁Guerrero	-11.8552
▁Federer	-11.8552
▁correspondent	-11.8553
▁Vick	-11.8554
▁Hun	-11.8554
▁afraid	-11.8554
▁Congo	-11.8554
▁heroic	-11.8558
▁Blackburn	-11.8559
▁retrospective	-11.8564
▁Rou	-11.8571
▁Cru	-11.8572
▁Wave	-11.8572
▁Brewer	-11.8572
▁fad	-11.8573
▁Memor	-11.8573
▁Webb	-11.8574
▁Lay	-11.8574
▁awkward	-11.8575
lunar	-11.8576
▁Cliff	-11.858
60	-11.8584
▁Wimbledon	-11.8587
▁Clyde	-11.8587
▁beta	-11.8591
▁Solo	-11.8592
▁1837	-11.8592
CL	-11.8593
▁Cage	-11.8595
obility	-11.8599
▁Sheriff	-11.8599
▁elongat	-11.8599
▁sculptor	-11.86
▁reunion	-11.8601
▁reus	-11.8605
anus	-11.8605
▁Shark	-11.8606
▁lend	-11.8606
▁Traditional	-11.8608
▁continuation	-11.8609
ota	-11.861
▁filling	-11.8612
▁flock	-11.8613
▁grace	-11.8615
▁fungi	-11.8615
▁Touch	-11.8619
▁Lac	-11.862
▁fr	-11.8621
▁gravitational	-11.8622
▁ladder	-11.8622
▁drought	-11.8623
▁bulb	-11.8623
▁inspect	-11.8629
stad	-11.863
▁op	-11.863
▁till	-11.8631
▁sulfur	-11.8634
▁vacant	-11.8634
lli	-11.8634
▁masterpiece	-11.8635
HA	-11.8636
boat	-11.8637
uka	-11.8638
▁Support	-11.8639
▁Broadcast	-11.8642
▁swor	-11.8643
▁Zagreb	-11.8646
▁Rao	-11.8647
▁Representative	-11.865
▁prosecutor	-11.8651
▁deity	-11.8651
▁Element	-11.8651
▁prone	-11.8652
▁unbeat	-11.8652
▁Maggi	-11.8655
▁summon	-11.8658
▁Vishnu	-11.8658
▁Webster	-11.8658
▁Chain	-11.866
▁hangar	-11.8661
▁menu	-11.8663
▁fer	-11.8663
▁mimic	-11.8664
▁summoned	-11.8664
mor	-11.8665
AM	-11.8667
screen	-11.867
▁dismantl	-11.867
ping	-11.8677
opo	-11.8678
uburn	-11.8679
▁Gazette	-11.8682
▁Jun	-11.8682
▁Conrad	-11.8682
▁ATP	-11.8686
▁Sales	-11.8687
▁Monk	-11.8689
▁handful	-11.8689
▁shutout	-11.869
▁discourage	-11.8694
▁incumbent	-11.8694
▁partisan	-11.8697
▁Fast	-11.8699
▁Trent	-11.8702
▁recreation	-11.8702
▁Sparta	-11.8704
▁fraction	-11.8705
▁ho	-11.8706
▁Communications	-11.8706
▁Abdul	-11.8707
▁textile	-11.8707
▁detection	-11.8709
▁Students	-11.871
▁Seth	-11.871
▁Pla	-11.8712
illo	-11.8714
▁Guatemala	-11.8715
▁Matilda	-11.8717
▁vigorous	-11.8717
▁mound	-11.8717
▁Biography	-11.8717
▁Juda	-11.8725
vert	-11.8727
▁collar	-11.8729
▁bunker	-11.8729
▁flavor	-11.8729
▁Fork	-11.873
▁Tru	-11.873
▁pad	-11.873
▁drives	-11.8736
mur	-11.8738
▁affection	-11.8738
▁Boo	-11.8741
▁Orkney	-11.8741
▁ineffective	-11.8741
▁lectures	-11.8743
▁gra	-11.8744
▁bug	-11.8744
▁commence	-11.8745
▁Legal	-11.8747
▁snake	-11.8747
▁trenche	-11.8751
▁Dorothy	-11.8753
▁Tolkien	-11.8753
▁Trinidad	-11.8753
▁envision	-11.8755
▁embrac	-11.8756
parts	-11.8757
▁scarce	-11.8759
▁Brig	-11.8763
▁hik	-11.8764
▁Nin	-11.8764
▁penn	-11.8764
▁energetic	-11.8765
▁nutrient	-11.8765
▁breathing	-11.8767
▁Pole	-11.8769
▁Milne	-11.8769
▁Voyager	-11.877
▁Fan	-11.8771
▁repuls	-11.8772
rate	-11.8772
▁diplomat	-11.8775
▁fuselage	-11.8777
▁immense	-11.8777
▁verdict	-11.8777
▁Crosby	-11.8777
▁reproductive	-11.8778
▁mon	-11.878
▁Locke	-11.8781
▁debat	-11.8781
▁1839	-11.8782
▁translate	-11.8784
▁revolve	-11.8784
▁remixes	-11.8784
▁portraits	-11.8785
yama	-11.8789
▁ecological	-11.8789
▁endemic	-11.8789
ashi	-11.8794
▁hypha	-11.8795
▁embrace	-11.8798
▁Sinclair	-11.8801
▁technological	-11.8801
▁tragedy	-11.8801
▁Heinrich	-11.8801
▁bankruptc	-11.8803
▁mantle	-11.8805
▁Priv	-11.8807
▁steamer	-11.8807
▁tables	-11.8808
42	-11.8812
▁Syracus	-11.8813
▁Gaelic	-11.8814
▁spectacular	-11.8814
▁embryo	-11.8814
crosse	-11.8815
ikk	-11.8816
▁Fen	-11.8816
▁sil	-11.882
▁strikeout	-11.8822
▁Expressway	-11.8826
▁boil	-11.8827
▁Chesa	-11.8827
▁vacation	-11.8827
▁Rh	-11.8828
95	-11.883
▁dialect	-11.8834
▁Jill	-11.8835
pole	-11.8836
▁Legislative	-11.8837
▁clade	-11.8838
▁Shawn	-11.8838
▁Diane	-11.8838
▁Airways	-11.8839
▁Classical	-11.8843
▁happening	-11.8845
▁reporters	-11.8846
▁Hutchinson	-11.8849
▁Architecture	-11.8849
▁Ono	-11.885
▁Kot	-11.8851
▁Expo	-11.8851
▁devastating	-11.8852
sium	-11.8856
sham	-11.8856
▁viruses	-11.8858
▁Miz	-11.886
▁Khrushchev	-11.8861
▁iPhone	-11.8861
▁evaluation	-11.8864
▁obscure	-11.8868
▁Sesam	-11.8868
▁rendering	-11.8869
▁realise	-11.8873
▁Felix	-11.8874
▁pipeline	-11.8874
shot	-11.8874
▁Eigh	-11.8875
▁beache	-11.888
▁173	-11.8882
▁Pay	-11.8882
▁faint	-11.8886
▁counterparts	-11.8889
hir	-11.889
▁Qui	-11.889
▁Providenc	-11.889
▁460	-11.889
▁Ah	-11.8891
PI	-11.8895
▁sketche	-11.8896
▁195	-11.8896
▁168	-11.8897
▁terminated	-11.89
▁Vision	-11.8901
▁cord	-11.8901
▁Flash	-11.8902
▁137	-11.8902
▁consume	-11.8905
▁notorious	-11.8905
▁Flow	-11.8907
▁Warrior	-11.8909
▁motorcycle	-11.891
▁suck	-11.8916
wind	-11.8916
▁Tsu	-11.8919
▁practis	-11.8922
▁valve	-11.8922
▁rebound	-11.8922
▁Lambert	-11.8924
▁Dorset	-11.8926
76	-11.8927
▁unnecessary	-11.8929
▁merchandise	-11.8932
▁Herzegovina	-11.8934
▁Wembley	-11.8934
▁pedestrian	-11.8934
▁Avenger	-11.8934
▁cavit	-11.8934
▁awaken	-11.8939
▁traffick	-11.8939
lob	-11.8944
▁Krusty	-11.8946
▁tobacco	-11.8946
▁Eva	-11.8947
▁keeps	-11.8951
itchfork	-11.8958
beck	-11.8958
▁stack	-11.896
▁Midway	-11.896
▁spray	-11.8963
wyn	-11.8964
sdale	-11.8966
▁fu	-11.8967
▁stealing	-11.8968
▁Southwest	-11.8969
▁Galve	-11.897
▁Rep	-11.897
izz	-11.8973
▁Bf	-11.8974
▁monopol	-11.8975
▁conception	-11.8976
▁Finals	-11.8977
▁Bois	-11.8977
▁barr	-11.8978
▁Tal	-11.898
▁126	-11.8981
▁royalt	-11.8982
▁Squad	-11.8983
▁Wyoming	-11.8983
▁uncommon	-11.8983
▁airplane	-11.8984
mine	-11.8988
▁1835	-11.8989
pha	-11.8992
▁Lana	-11.8995
▁Leipzig	-11.8995
▁curtain	-11.8995
▁subplot	-11.8995
▁Border	-11.8996
▁pardon	-11.8996
▁Fel	-11.8997
▁depos	-11.9001
bia	-11.9001
TO	-11.9001
piece	-11.9005
▁detain	-11.9007
▁congress	-11.9007
▁repeal	-11.9007
finish	-11.9016
▁Sixth	-11.9017
▁Corn	-11.9018
▁prostitute	-11.902
▁Vernon	-11.902
▁joy	-11.9022
▁Honey	-11.9023
▁Keys	-11.9027
▁riots	-11.9027
▁protester	-11.9031
▁Agreement	-11.9032
▁compelling	-11.9037
▁Sher	-11.9041
▁catalogue	-11.9041
▁nobles	-11.9042
▁imagine	-11.9042
▁NWA	-11.9045
▁trench	-11.9046
▁Declaration	-11.9057
▁vinyl	-11.9057
▁Ted	-11.9062
law	-11.9064
▁exam	-11.9067
▁militant	-11.9069
rad	-11.9069
▁marginal	-11.9069
▁Wanderers	-11.907
▁Sr	-11.9071
▁surfaces	-11.9071
▁verb	-11.9072
▁relegation	-11.9072
▁Hep	-11.9073
powder	-11.9077
▁Mortal	-11.9077
▁Journey	-11.9081
▁amphibio	-11.9081
▁Shanghai	-11.9081
▁treason	-11.9081
▁recognise	-11.9082
amba	-11.9087
▁Warning	-11.9088
▁probe	-11.9093
▁Randolph	-11.9094
▁Zimbabwe	-11.9094
▁Empres	-11.9094
▁Slayer	-11.9094
▁Shannon	-11.9094
▁carriage	-11.9098
▁autonom	-11.9099
▁integr	-11.91
acy	-11.9101
▁behave	-11.9105
▁Mot	-11.9105
▁Spike	-11.9106
▁Nazis	-11.9107
▁summ	-11.9107
iva	-11.9109
▁Kids	-11.9109
iri	-11.911
▁1799	-11.9111
▁Clarkson	-11.9114
▁escalat	-11.9115
▁Fuji	-11.9115
▁Bates	-11.9116
▁happens	-11.9117
▁Achievement	-11.9118
▁Offensive	-11.9118
▁Ada	-11.9118
▁Persians	-11.9118
▁farthe	-11.9118
▁oblig	-11.9119
▁Croat	-11.912
▁equit	-11.912
▁Fighting	-11.912
run	-11.9121
▁Himm	-11.9123
▁Parish	-11.9128
▁Tasmania	-11.9129
▁fi	-11.9131
▁Aberdeen	-11.9131
▁pamphlet	-11.9131
▁Chemical	-11.9131
▁cardinal	-11.9131
▁regulat	-11.9131
▁Pel	-11.9132
▁Pack	-11.9133
▁Duch	-11.9133
hoe	-11.9136
▁Hits	-11.9136
force	-11.9137
▁1838	-11.9137
▁repetitive	-11.9143
▁wolf	-11.9143
▁divorc	-11.9144
▁metallic	-11.9146
▁invade	-11.9146
32	-11.9148
▁rejection	-11.9151
▁Twilight	-11.9156
▁Smash	-11.9156
▁spill	-11.9156
▁Effects	-11.9157
▁bulkhead	-11.9158
▁Cobb	-11.916
▁Crusader	-11.9162
▁Queens	-11.9162
▁Goodman	-11.9164
bird	-11.9167
bat	-11.9167
▁visibility	-11.9168
▁Complex	-11.9168
ept	-11.9169
▁Scene	-11.9173
bourne	-11.9173
▁Ok	-11.9175
▁Diva	-11.9176
AF	-11.918
▁Wide	-11.918
▁furni	-11.918
▁parachute	-11.9181
▁tremendous	-11.9181
▁plasma	-11.9181
▁Jump	-11.9182
▁authoris	-11.9182
▁Tide	-11.9183
▁disappointing	-11.9184
igh	-11.9191
▁Bahrain	-11.9193
▁Gerr	-11.9194
▁heated	-11.9195
▁Phase	-11.9199
▁Charle	-11.9199
▁124	-11.92
▁Barrow	-11.9202
▁supernova	-11.9206
▁unifi	-11.9206
▁panic	-11.9206
suke	-11.9206
▁precedent	-11.9208
▁Watts	-11.921
▁Bayern	-11.9211
llo	-11.9211
▁1829	-11.9211
udi	-11.9212
▁isotope	-11.9215
▁Belt	-11.9216
▁Vladimir	-11.9218
▁Slant	-11.9218
▁surname	-11.9219
▁slate	-11.9221
cro	-11.9222
▁spike	-11.9226
▁Matsu	-11.9228
OR	-11.9231
▁insult	-11.9234
▁cl	-11.9236
▁nave	-11.9239
▁Trevor	-11.9243
▁Cur	-11.9243
▁Silent	-11.9244
▁rematch	-11.9244
▁legendar	-11.9248
91	-11.9249
▁cliff	-11.925
shima	-11.9251
▁Egg	-11.9252
ree	-11.9254
▁305	-11.9254
▁grape	-11.9254
gre	-11.9256
▁Exchange	-11.9256
▁Shepherd	-11.9256
▁intimidat	-11.9256
▁Plains	-11.9256
▁Ett	-11.9257
▁melting	-11.9257
▁vowel	-11.9257
eux	-11.926
▁Moreno	-11.9261
nick	-11.9261
▁por	-11.9265
▁clinic	-11.9266
▁economical	-11.9267
▁rag	-11.9267
▁Julius	-11.9268
▁LGBT	-11.9268
▁Testament	-11.9268
▁fiscal	-11.9268
▁sparrow	-11.9269
lop	-11.9269
▁Rosen	-11.927
▁cheese	-11.9272
▁alpha	-11.9273
assett	-11.9276
▁analyse	-11.9277
▁interfere	-11.9277
▁Something	-11.9278
▁catalog	-11.9279
▁Gla	-11.928
▁gram	-11.928
▁stint	-11.9281
▁cockpit	-11.9281
▁trunkline	-11.9282
▁XII	-11.9282
▁summariz	-11.9283
▁Kenya	-11.9284
▁wheels	-11.9285
▁Erik	-11.9287
▁Davidson	-11.9288
▁Kali	-11.9288
▁MCC	-11.9289
▁globe	-11.9293
▁Institution	-11.93
▁Duff	-11.93
▁Carson	-11.93
▁mills	-11.93
▁olive	-11.9301
▁confiscat	-11.9302
▁Boone	-11.9304
▁Ker	-11.9306
▁Vir	-11.9306
▁Ukraine	-11.9306
▁unchang	-11.9306
▁scroll	-11.9306
▁Geography	-11.9306
▁Detective	-11.9306
▁Clare	-11.9309
GC	-11.9311
▁odds	-11.9311
care	-11.9316
▁liberty	-11.9319
▁Glory	-11.932
▁Booker	-11.932
▁Rom	-11.9323
dong	-11.9323
▁corners	-11.9323
NG	-11.9323
▁shout	-11.9325
▁pray	-11.9325
▁Ir	-11.9327
▁composing	-11.9329
▁mut	-11.9329
▁smuggl	-11.9329
▁moistur	-11.933
▁relic	-11.933
▁eponymous	-11.9331
▁aquatic	-11.9331
▁pension	-11.9332
▁utilize	-11.9332
▁Emergenc	-11.9333
ér	-11.9334
▁Salford	-11.9334
▁statues	-11.9338
▁Basil	-11.9345
▁saga	-11.9345
▁1842	-11.9348
▁disposal	-11.9348
▁Letter	-11.9351
▁alike	-11.9351
▁reorganiz	-11.9355
▁Germanic	-11.9357
▁Undertaker	-11.9357
▁fountain	-11.9357
▁mercenar	-11.9357
DF	-11.9357
▁potas	-11.9357
▁angles	-11.9358
▁litter	-11.9359
▁123	-11.936
▁neuro	-11.9362
asi	-11.9365
▁Charit	-11.9367
▁Looking	-11.9367
▁bend	-11.9368
▁Lab	-11.9369
▁MC	-11.9369
▁Jesuit	-11.937
▁Nigel	-11.937
▁inflation	-11.9373
▁sculptures	-11.9374
▁outflow	-11.9375
▁Smok	-11.9376
▁Battery	-11.9382
▁exotic	-11.9383
▁anarchist	-11.9384
▁Rough	-11.9386
▁Nicole	-11.9387
▁separat	-11.9388
▁Ladies	-11.9388
90	-11.9391
▁admiral	-11.9394
▁Copenhagen	-11.9395
▁Glacier	-11.9395
▁disastrous	-11.9395
▁pavilion	-11.9395
▁HV	-11.9395
▁pigment	-11.9396
▁pu	-11.9397
▁ODI	-11.9397
▁formats	-11.9398
▁interfer	-11.9402
▁artifacts	-11.9405
▁Sing	-11.9406
▁Comp	-11.9406
▁Northumberland	-11.9408
▁destructive	-11.9408
▁amidship	-11.9408
▁Aston	-11.941
▁Killer	-11.9411
▁denot	-11.9412
▁NC	-11.9416
▁naturalist	-11.9417
▁Compt	-11.9419
▁Presbyterian	-11.942
▁dishe	-11.9421
▁martin	-11.9421
▁Chess	-11.9422
▁outward	-11.9423
▁interr	-11.9423
▁Till	-11.9425
▁Stark	-11.9425
▁Mala	-11.9426
▁Av	-11.9429
▁duel	-11.9429
▁bubble	-11.9433
▁boast	-11.9433
▁sheriff	-11.9433
▁Cannon	-11.9433
▁Bombay	-11.9434
▁sandwich	-11.9434
▁Borg	-11.9434
ude	-11.9435
▁Fra	-11.9435
▁Kam	-11.9438
WR	-11.9441
▁Tro	-11.9446
▁Artists	-11.9448
▁1843	-11.9449
▁480	-11.9449
▁Prinz	-11.9459
▁agenda	-11.9459
▁granite	-11.9459
▁Regular	-11.9459
▁Rating	-11.9463
▁attest	-11.9464
▁Lil	-11.9465
▁appreciation	-11.9465
inal	-11.9466
▁polluti	-11.9466
▁guardian	-11.9468
▁inscribed	-11.9469
▁compensate	-11.947
▁probable	-11.9471
▁Metallica	-11.9472
▁Religion	-11.9472
▁academy	-11.9472
▁robust	-11.9472
▁storytell	-11.9472
▁database	-11.9472
▁Yucat	-11.9472
▁Taf	-11.9473
▁slaughter	-11.9475
▁distributor	-11.9479
▁Chambers	-11.9481
▁convex	-11.9485
▁originate	-11.9485
▁township	-11.9486
▁shake	-11.9486
hm	-11.9492
▁Said	-11.9493
▁synthesiz	-11.9495
▁unrelat	-11.9497
▁Dock	-11.9497
▁Gai	-11.9502
retace	-11.9503
▁1815	-11.9503
▁410	-11.9505
▁sounding	-11.9508
▁Advisor	-11.951
▁Idaho	-11.951
▁static	-11.951
▁Brooke	-11.9511
▁flora	-11.9513
▁Cairo	-11.9514
▁undis	-11.9516
▁procession	-11.9516
▁coinage	-11.9517
▁renumbering	-11.9518
▁USAF	-11.9519
▁Sign	-11.952
▁Dad	-11.952
▁Bosnian	-11.952
▁Ill	-11.9521
▁cylindric	-11.9523
▁screw	-11.9523
▁Elvis	-11.9524
▁mercur	-11.9524
▁otter	-11.9525
SR	-11.9525
▁reprise	-11.9527
▁verbal	-11.9528
mma	-11.9529
jima	-11.9531
▁Dunn	-11.9532
eum	-11.9533
fried	-11.9534
▁Galaxy	-11.9536
▁Eleven	-11.9536
▁Converse	-11.9536
▁lightning	-11.9539
mir	-11.954
▁Middleton	-11.9541
▁Noble	-11.9543
▁Dust	-11.9545
▁Ambassador	-11.9549
▁Roe	-11.9551
▁Characters	-11.9553
▁Pri	-11.9555
▁Character	-11.9558
▁Fil	-11.9559
▁cuisine	-11.9562
▁Beta	-11.9564
▁claw	-11.9564
put	-11.9565
▁index	-11.9566
▁posting	-11.9568
▁Gat	-11.9569
cover	-11.9573
▁lighthouse	-11.9574
▁Winnipeg	-11.9575
▁Isabella	-11.9576
▁Walsh	-11.9578
58	-11.9579
LA	-11.958
▁Ace	-11.9581
▁Au	-11.9584
mani	-11.9585
▁Wan	-11.9586
▁Echo	-11.9586
▁AIF	-11.9587
▁Sora	-11.9588
▁antenna	-11.9588
▁Search	-11.9589
▁Elm	-11.9591
▁Iranian	-11.9591
▁Styles	-11.9592
▁airplay	-11.9593
▁144	-11.9595
visible	-11.9595
ural	-11.9597
▁Mode	-11.9601
▁Economy	-11.9601
▁imminent	-11.9601
▁supreme	-11.9601
▁aristocrat	-11.9601
▁Observatory	-11.9601
▁inherent	-11.9601
▁microphone	-11.9601
▁casual	-11.9602
▁tides	-11.9604
▁GameSp	-11.9604
▁Fre	-11.9605
▁graph	-11.9607
▁Noel	-11.9607
▁Abb	-11.9608
▁Nile	-11.961
▁Hai	-11.9613
▁tutor	-11.9614
▁Experience	-11.9614
▁substrate	-11.9614
▁Ibn	-11.9615
▁flatten	-11.9618
▁Animals	-11.962
▁columnist	-11.962
tun	-11.9622
ties	-11.9625
▁Dee	-11.9626
▁Commerc	-11.9627
▁Relations	-11.9627
▁rerout	-11.9627
▁Bloom	-11.9629
▁stronghold	-11.963
▁Bend	-11.963
BA	-11.963
CU	-11.963
▁wetland	-11.963
▁stellar	-11.9632
▁Chin	-11.9632
▁manipulat	-11.9633
▁Gol	-11.9636
▁cruis	-11.9637
▁129	-11.9637
▁AR	-11.9639
▁hostilities	-11.964
▁outskirt	-11.964
▁proto	-11.964
▁Policy	-11.964
wicz	-11.9641
▁choreography	-11.9644
▁interception	-11.9644
▁missionaries	-11.9645
▁dub	-11.9648
▁Weston	-11.9649
▁Neville	-11.9652
▁pig	-11.9652
▁companions	-11.9653
▁Tuesday	-11.9653
oco	-11.9653
inae	-11.9654
▁graz	-11.9655
▁Factor	-11.9656
▁baptism	-11.9663
▁interven	-11.9665
▁Physical	-11.9666
▁Casino	-11.9666
zan	-11.9666
▁starv	-11.9666
▁Diet	-11.9667
▁initiate	-11.9674
▁depriv	-11.9677
▁Luz	-11.9679
▁Appeals	-11.9679
▁accession	-11.9679
▁Memphi	-11.968
▁passionate	-11.968
▁holy	-11.9683
▁Herman	-11.9684
▁beneficia	-11.9684
▁defendant	-11.9685
▁nude	-11.9686
rought	-11.9686
▁Hag	-11.9688
▁diocese	-11.9689
▁Progress	-11.9691
▁Kha	-11.9692
▁Platinum	-11.9692
▁Venetian	-11.9692
▁Einstein	-11.9692
▁mascot	-11.9693
▁furious	-11.9693
▁Stanton	-11.9698
▁ignore	-11.9701
▁poets	-11.9702
kill	-11.9705
▁practitioner	-11.9706
▁NES	-11.9706
▁Rus	-11.9706
▁exert	-11.9707
▁Fri	-11.9707
▁oval	-11.9709
▁teen	-11.9709
▁Rein	-11.9709
▁Levine	-11.9709
▁Europa	-11.9709
▁1794	-11.971
▁Comb	-11.9711
▁enjoyable	-11.9712
VA	-11.9713
▁Malaysian	-11.9714
▁terrace	-11.9714
▁Micke	-11.9716
▁sophomore	-11.9719
hPa	-11.9719
51	-11.972
ann	-11.9723
▁Shankar	-11.9725
▁gem	-11.9726
▁Municipal	-11.9729
▁Promotion	-11.9732
▁Revival	-11.9732
ethanol	-11.9732
▁Ang	-11.9733
▁footballer	-11.9733
▁primate	-11.9734
▁compatib	-11.9734
▁Vale	-11.9736
▁quad	-11.9736
▁patche	-11.9736
▁Enter	-11.9737
▁Nico	-11.9739
▁eruptions	-11.974
▁Mod	-11.9743
▁magnet	-11.9745
▁allegiance	-11.9745
▁crust	-11.9745
▁Madras	-11.9745
▁Randall	-11.9746
AD	-11.9747
glades	-11.9753
▁cop	-11.9754
▁shin	-11.9756
▁Seventh	-11.9758
▁shoes	-11.9758
▁Influence	-11.9758
▁Financial	-11.9758
▁dissolution	-11.9758
hrer	-11.9759
▁reinstat	-11.976
▁reissue	-11.9763
▁marching	-11.9764
lac	-11.9764
▁Mariah	-11.9766
▁infinite	-11.9768
▁downward	-11.977
▁Sig	-11.9771
▁205	-11.9772
▁magistrate	-11.9772
▁Tudor	-11.9772
▁Armor	-11.9772
▁Smyth	-11.9773
iac	-11.9774
▁1798	-11.9776
▁taxi	-11.9777
▁Heroes	-11.9777
▁Alexandra	-11.9778
▁dislike	-11.9779
▁Factory	-11.9783
▁Folk	-11.9784
▁Nickel	-11.9785
▁commissioner	-11.9785
▁Rotten	-11.9785
▁Vermont	-11.9786
▁revive	-11.9788
▁outage	-11.979
▁Godwin	-11.9794
▁stallion	-11.9795
▁Ji	-11.9796
▁bind	-11.9797
▁Ox	-11.9797
▁Agriculture	-11.9798
▁fiber	-11.9798
▁guess	-11.9799
▁geological	-11.9799
▁Did	-11.98
▁Whig	-11.9804
ulation	-11.9807
▁Ari	-11.9809
▁consoles	-11.9809
▁indie	-11.9811
▁Cartoon	-11.9811
▁850	-11.9813
dorf	-11.9813
▁stemm	-11.9815
lett	-11.9818
0	-11.9819
▁Strange	-11.9823
▁Bismarck	-11.9825
▁astronaut	-11.9825
▁prolific	-11.9825
▁Illustrated	-11.9825
▁Habsburg	-11.9825
▁anxiet	-11.9825
▁boycott	-11.9825
aria	-11.9825
▁capp	-11.9827
▁Course	-11.9827
▁slender	-11.9827
▁propell	-11.9828
rill	-11.9829
▁stair	-11.9831
▁Earp	-11.9832
rama	-11.9833
▁mac	-11.9837
▁slogan	-11.9838
▁prevalent	-11.9838
▁problematic	-11.9839
litz	-11.984
▁canyon	-11.984
▁classroom	-11.984
▁Gaming	-11.9841
wide	-11.9844
▁necessitat	-11.9845
▁acquir	-11.9846
▁Pakistani	-11.9846
▁Moe	-11.9848
▁chronicler	-11.9848
▁Rivera	-11.9848
ello	-11.9851
▁pseudonym	-11.9851
▁Batista	-11.9851
▁psychedelic	-11.9852
wer	-11.9852
scope	-11.9853
▁Phillip	-11.9857
▁Greenland	-11.9857
▁235	-11.9858
▁entertain	-11.986
▁Landing	-11.9861
▁coffin	-11.9865
▁Massa	-11.9867
▁penetrate	-11.9867
▁Mitch	-11.9868
▁plateau	-11.9869
▁scal	-11.9872
▁Barker	-11.9874
rov	-11.9876
▁Restoration	-11.9878
▁coincide	-11.9879
▁Mara	-11.988
▁monk	-11.9884
▁Extra	-11.9885
▁Dom	-11.9885
▁erod	-11.9885
▁Lyrical	-11.9887
▁Poly	-11.9888
▁Shock	-11.9892
▁painful	-11.9893
nthology	-11.9894
oun	-11.9895
▁Clo	-11.9898
▁devotion	-11.9899
▁Marion	-11.9901
▁Locat	-11.9902
▁Kumar	-11.9904
▁Brain	-11.9904
▁Doom	-11.9905
▁Holiday	-11.9905
▁incarnation	-11.9905
▁Clarence	-11.9905
▁grammar	-11.9905
▁postseason	-11.9907
▁boring	-11.9907
CD	-11.9916
gli	-11.9917
▁cartridge	-11.9918
▁Harald	-11.9918
▁truncat	-11.9918
▁prescrib	-11.992
▁Lt	-11.9921
▁Til	-11.9925
▁ego	-11.9927
tric	-11.9928
▁Erle	-11.9929
rak	-11.9929
ime	-11.9929
esh	-11.993
cap	-11.993
▁clue	-11.9932
▁hotels	-11.9932
▁Rag	-11.9934
▁outnumber	-11.9935
▁disappearance	-11.9935
▁manifest	-11.9935
▁repris	-11.9936
▁Walton	-11.9937
▁Fac	-11.9938
▁Math	-11.9938
▁critique	-11.994
▁Boot	-11.994
▁distort	-11.9942
lian	-11.9944
▁Moffat	-11.9945
▁Rainbow	-11.9945
▁Cell	-11.9945
▁Albania	-11.9946
▁sperm	-11.9946
▁obscur	-11.9952
▁Hawke	-11.9953
▁lone	-11.9954
▁infra	-11.9954
▁barrage	-11.996
▁migrat	-11.996
▁Highland	-11.9961
▁terminate	-11.9962
▁cry	-11.9964
▁1819	-11.9966
▁Lakers	-11.9967
▁Cel	-11.9967
▁temperat	-11.9968
▁Amsterdam	-11.9972
▁Vulcan	-11.9972
▁spoil	-11.9972
key	-11.9973
▁ecclesiastical	-11.9974
▁fringe	-11.9976
keeping	-11.9978
pu	-11.9982
GI	-11.9982
▁Slam	-11.9983
▁Coke	-11.9983
IA	-11.9984
75	-11.9985
▁Cunningham	-11.9986
▁civic	-11.9986
▁conscience	-11.9986
▁uncomfortabl	-11.9986
▁tragic	-11.9986
▁Krak	-11.9986
bot	-11.9986
▁clearance	-11.9987
▁wise	-11.9989
owed	-11.999
▁earl	-11.9991
▁1814	-11.9991
▁plat	-11.9992
▁Gibbs	-11.9995
▁Facebook	-11.9999
▁Ronnie	-12
▁justify	-12.0002
matsu	-12.0002
▁Bono	-12.0003
▁archipelago	-12.0003
▁Groen	-12.0005
▁rework	-12.0007
▁Rita	-12.0012
▁iPad	-12.0013
▁oxidation	-12.0014
▁Ton	-12.0017
rself	-12.0018
uous	-12.0019
▁Devils	-12.0022
▁crude	-12.0023
▁Batt	-12.0024
▁Luther	-12.0025
▁vitamin	-12.0026
▁outpost	-12.0026
▁Elector	-12.0027
▁staging	-12.0027
uxiliary	-12.0027
reafter	-12.0028
aro	-12.0029
▁Quick	-12.0032
tting	-12.0032
▁Goldman	-12.0033
▁associations	-12.0033
▁overlapp	-12.0036
works	-12.0037
▁Shirley	-12.004
▁Describ	-12.0041
▁complications	-12.0048
▁Oldham	-12.0049
▁aims	-12.005
citing	-12.005
▁mammal	-12.0051
mill	-12.0052
▁drastic	-12.0053
▁Thomson	-12.0055
▁screenwriter	-12.0057
▁retailer	-12.0058
▁Guin	-12.006
▁portal	-12.0063
▁advise	-12.0064
▁contemplat	-12.0065
▁diploma	-12.0065
tiny	-12.0067
▁Cartman	-12.0067
▁Congressional	-12.0067
▁wheat	-12.0067
▁Taunton	-12.0068
▁Geneva	-12.0072
▁Shot	-12.0076
employment	-12.0077
856	-12.0077
▁referenc	-12.008
▁propagat	-12.0081
▁Patricia	-12.0085
ddy	-12.0086
▁swimmer	-12.0086
▁norm	-12.0089
▁Bryant	-12.0092
▁beak	-12.0092
▁380	-12.0093
▁aggression	-12.0094
▁sixteenth	-12.0096
▁Dev	-12.0096
▁underway	-12.0097
▁Alec	-12.0102
▁builder	-12.0103
▁trustees	-12.0104
▁Lip	-12.0105
▁Peggy	-12.0105
▁SK	-12.0105
▁obsolete	-12.0108
▁illusion	-12.0108
▁Landmark	-12.0109
▁158	-12.0111
▁idol	-12.0111
▁Leafs	-12.0112
▁pp	-12.0112
▁anticipation	-12.0114
▁loans	-12.0115
vre	-12.0117
▁Breed	-12.0117
anto	-12.0118
▁composite	-12.0121
▁Ng	-12.0122
▁Olivier	-12.0122
▁Trouble	-12.0122
tip	-12.0125
teau	-12.0125
▁1810	-12.0126
▁Bruno	-12.0129
enau	-12.013
gie	-12.013
▁flexibl	-12.013
▁Sava	-12.0131
jar	-12.0131
scu	-12.0132
▁Fitzgerald	-12.0135
▁Rebecca	-12.0135
▁Rodgers	-12.0136
▁Colony	-12.0136
▁Nuclear	-12.0136
▁wit	-12.0136
▁Reporter	-12.0137
▁Dominion	-12.0138
▁Frost	-12.014
▁Jacobs	-12.014
▁Rockets	-12.0144
▁NHC	-12.0144
▁amass	-12.0145
▁fabric	-12.0146
AP	-12.0147
▁Resolution	-12.0149
▁linguistic	-12.015
▁inhibit	-12.0151
▁Abd	-12.0155
▁pend	-12.0155
▁contender	-12.0156
▁midfielder	-12.0161
▁Aid	-12.0163
▁Naples	-12.0163
▁Rebellion	-12.0163
▁Salvador	-12.0163
▁Wise	-12.0164
▁endorsement	-12.0164
zh	-12.0166
▁Lad	-12.0168
rell	-12.0171
▁Eg	-12.0175
▁throws	-12.0177
▁Romeo	-12.0177
▁Dickinson	-12.0177
▁fixture	-12.0178
▁Everett	-12.0179
▁Cret	-12.018
fight	-12.0181
▁Shear	-12.0183
bla	-12.0184
▁Sophia	-12.0185
▁execute	-12.0185
▁lac	-12.0189
▁scripts	-12.0189
▁algorithm	-12.0191
▁feast	-12.0191
▁Literature	-12.0191
▁fairy	-12.0191
▁redevelopment	-12.0192
▁cri	-12.0193
▁files	-12.0196
▁rid	-12.0197
▁cater	-12.0204
▁adjoin	-12.0204
▁Marlborough	-12.0204
▁shatter	-12.0204
▁rallie	-12.0205
▁Tea	-12.0206
▁Tomato	-12.0206
▁Mika	-12.0206
▁Gau	-12.0208
chon	-12.0208
aceae	-12.0209
▁Bj	-12.021
▁Operational	-12.0213
▁Ashe	-12.0214
▁illuminat	-12.0216
▁su	-12.0217
▁Climate	-12.0218
▁Medieval	-12.0218
▁Pioneer	-12.0218
▁numerical	-12.0218
▁Jenny	-12.0219
▁Image	-12.022
▁addiction	-12.0224
92	-12.0224
806	-12.0226
satisfied	-12.0227
▁cope	-12.023
▁spear	-12.0231
▁Swa	-12.0232
▁Census	-12.0232
▁Relief	-12.0232
▁Kos	-12.0232
▁barbette	-12.0232
▁constraints	-12.0232
▁honey	-12.0233
▁Hole	-12.0233
▁canvas	-12.0233
▁tele	-12.0233
▁Wilkinson	-12.0234
▁1775	-12.0236
▁wool	-12.0236
▁Abov	-12.0237
▁axe	-12.0238
▁Flat	-12.024
gra	-12.0243
▁146	-12.0243
borg	-12.0246
▁refrain	-12.0246
▁cooperative	-12.0246
▁Murder	-12.0247
phone	-12.0249
▁rhyme	-12.025
▁emblem	-12.025
▁dye	-12.0251
▁bodi	-12.0252
▁necessit	-12.0252
▁truce	-12.0252
▁Wilde	-12.0253
lsewhere	-12.0253
▁disguise	-12.0254
▁broadcaster	-12.0255
▁Hair	-12.0256
▁eccentric	-12.0257
written	-12.0259
▁implied	-12.026
▁staircase	-12.026
bol	-12.026
▁fauna	-12.026
▁keel	-12.026
▁Canning	-12.0261
▁Majest	-12.0264
▁deepen	-12.0265
▁Mona	-12.0266
▁Gillia	-12.0266
▁Comet	-12.0268
▁Taking	-12.027
▁McCoy	-12.0271
▁Veteran	-12.0274
▁Period	-12.0274
▁bush	-12.0276
▁Mit	-12.028
▁Hornet	-12.0282
▁Cock	-12.0286
▁passive	-12.0286
▁Clifton	-12.0288
▁suffrage	-12.0288
▁vaccine	-12.0288
▁Sarawak	-12.0288
▁Picard	-12.0288
▁BL	-12.0288
▁pivot	-12.0288
▁proponent	-12.0289
▁Beau	-12.0289
▁wan	-12.0289
▁guideline	-12.029
kon	-12.029
▁Moss	-12.0292
▁1792	-12.0292
▁Santia	-12.0292
▁bribe	-12.0292
▁downgrad	-12.0293
bee	-12.0294
▁Coal	-12.0295
▁conform	-12.0297
gio	-12.0297
RI	-12.0301
▁Brussels	-12.0302
▁licence	-12.0302
▁Timoth	-12.0302
▁225	-12.0302
▁Cumberland	-12.0302
▁clips	-12.0303
▁Moses	-12.0303
tron	-12.0304
▁Ain	-12.0305
▁Era	-12.0305
▁Fortress	-12.0308
▁Certain	-12.0316
▁Milwaukee	-12.0316
▁repertoire	-12.0316
▁McClellan	-12.0316
▁casino	-12.0316
▁Driver	-12.0316
▁142	-12.0317
▁Payne	-12.0317
▁Pond	-12.0321
wear	-12.0322
▁Cai	-12.0323
▁Multi	-12.0325
MG	-12.0327
▁Mort	-12.0328
▁facto	-12.0329
PD	-12.0329
▁PopMatters	-12.033
▁disadvantage	-12.033
▁sermon	-12.033
▁Borneo	-12.033
▁Gan	-12.033
illy	-12.033
▁Royalist	-12.0331
▁Por	-12.0333
▁Satan	-12.0335
▁Creation	-12.0335
▁redesignat	-12.0341
▁MW	-12.0346
▁chloride	-12.0346
▁crab	-12.0347
▁Alb	-12.0347
aries	-12.0349
▁disruption	-12.0352
▁Bret	-12.0353
▁comedic	-12.0354
▁Rule	-12.0354
▁endur	-12.0354
▁approve	-12.0356
▁167	-12.0357
▁Fowler	-12.0358
▁Legislature	-12.0358
▁epidemic	-12.0358
▁Gin	-12.036
▁ITV	-12.0361
▁Freeman	-12.0362
▁Isabel	-12.0363
Ender	-12.0366
▁pope	-12.0367
▁mortal	-12.0369
▁nurs	-12.0369
▁Pluto	-12.037
▁distribute	-12.0371
▁susceptib	-12.0372
▁parrot	-12.0372
▁Avatar	-12.0372
▁Lau	-12.0376
▁moor	-12.0378
▁pi	-12.0378
▁offend	-12.038
cri	-12.0382
▁Mono	-12.0382
▁mounting	-12.0383
▁Dirt	-12.0384
▁hierarch	-12.0385
▁Braves	-12.0386
alagasy	-12.0386
▁heel	-12.0386
▁catcher	-12.0386
▁Advanc	-12.0389
▁Ramon	-12.0389
▁retract	-12.0391
▁Novel	-12.0392
▁Writer	-12.0395
face	-12.0397
▁Mean	-12.0399
▁scuttl	-12.04
▁Theme	-12.04
▁rats	-12.0402
▁1500	-12.0407
rio	-12.0409
▁equation	-12.041
▁Sale	-12.0411
istice	-12.0412
▁sighting	-12.0412
▁Flotilla	-12.0414
▁embedded	-12.0414
▁sneak	-12.0414
▁shy	-12.0415
▁Parent	-12.0415
▁Biden	-12.0418
▁Casa	-12.0418
▁aspir	-12.0419
▁explode	-12.0419
▁rod	-12.042
▁Chance	-12.0421
▁inhibitor	-12.0422
bow	-12.0422
▁Teen	-12.0425
nmi	-12.0428
▁Beaver	-12.0428
▁vague	-12.0428
▁Chopra	-12.0429
▁franc	-12.0429
recht	-12.043
▁inheritance	-12.0431
▁Gam	-12.0431
▁nineteen	-12.0431
▁midst	-12.0432
yard	-12.0432
▁markings	-12.0433
▁Deb	-12.0434
▁dash	-12.0434
▁pitt	-12.0438
lice	-12.0439
▁Terror	-12.0442
▁epithet	-12.0442
▁psychology	-12.0442
▁Chaplin	-12.0442
▁Cromwell	-12.0442
▁asylum	-12.0443
▁breakaway	-12.0444
▁Audio	-12.0444
blew	-12.0446
▁sew	-12.0447
grove	-12.0447
▁confirmation	-12.0447
▁Flor	-12.0447
rff	-12.045
▁151	-12.045
▁pod	-12.0451
▁Analysi	-12.0452
▁Sil	-12.0455
▁advent	-12.0456
▁Okinawa	-12.0456
tica	-12.0457
▁crane	-12.0457
▁firearm	-12.0459
▁Compar	-12.0462
▁reel	-12.0463
▁1825	-12.0464
▁deserve	-12.0465
▁comput	-12.0469
▁euro	-12.0469
nch	-12.047
▁Own	-12.047
▁Tracks	-12.0471
▁skier	-12.0478
▁Rana	-12.048
▁identifie	-12.048
Ebert	-12.0482
▁selective	-12.0484
weight	-12.0484
▁piercing	-12.0485
▁Davenport	-12.0485
▁envoy	-12.0485
▁monetar	-12.0485
▁condens	-12.0485
▁Nasser	-12.0485
▁Beauty	-12.0486
vat	-12.0487
▁Outer	-12.0487
rup	-12.0488
entity	-12.0489
▁156	-12.049
▁Bench	-12.0491
▁Naka	-12.0494
lith	-12.0494
▁Lille	-12.0496
▁lateral	-12.0496
▁draught	-12.0499
▁demise	-12.0499
▁Cambodia	-12.0499
▁poles	-12.0501
▁stationary	-12.0502
▁Sum	-12.0502
▁Savoy	-12.0506
▁Jur	-12.051
▁healing	-12.0511
▁inmate	-12.0511
▁Marty	-12.0512
▁Saffir	-12.0513
▁restrain	-12.0513
akshi	-12.0514
dining	-12.0516
ED	-12.052
▁den	-12.0521
▁touching	-12.0521
▁halls	-12.0522
▁entit	-12.0523
▁Dela	-12.0524
▁feather	-12.0526
▁Paradis	-12.0528
▁rehabilitation	-12.0528
▁stylistic	-12.0529
▁outlin	-12.0533
▁1789	-12.0534
zzo	-12.0535
▁Patter	-12.0536
▁dot	-12.0537
▁Jew	-12.0537
▁1804	-12.0538
▁lots	-12.0539
▁basal	-12.0539
▁Est	-12.054
▁Benson	-12.0541
▁railways	-12.0542
▁Talbot	-12.0542
▁Irene	-12.0542
▁exchang	-12.0543
▁suspicious	-12.0544
▁Sons	-12.0545
▁1795	-12.0546
▁Honours	-12.0547
▁1824	-12.0549
▁storyboard	-12.0549
▁Pix	-12.055
▁mates	-12.0551
▁Vis	-12.0552
▁stiff	-12.0553
▁Web	-12.0555
▁Example	-12.0556
▁mould	-12.0556
▁matrix	-12.0556
▁burrow	-12.0556
▁detention	-12.0558
▁Systems	-12.056
▁Eurasian	-12.056
▁Huff	-12.0562
▁Feature	-12.0562
scape	-12.0564
▁mandate	-12.0564
▁outlaw	-12.0565
actic	-12.0568
helps	-12.0569
▁Dav	-12.057
▁lumber	-12.057
▁spectral	-12.0571
DT	-12.0574
▁donor	-12.0577
ollywood	-12.0579
▁Aire	-12.058
▁Zen	-12.058
▁exceptions	-12.0581
▁Komba	-12.0584
▁Whedon	-12.0585
▁petrol	-12.0586
▁kickoff	-12.0586
▁appealing	-12.0588
▁lent	-12.0588
▁phenomena	-12.0594
▁Totten	-12.0597
▁Poor	-12.0597
▁Colombia	-12.0599
▁clinch	-12.0599
▁Antoine	-12.0599
▁Reverend	-12.0599
▁Mani	-12.06
icus	-12.0602
▁consort	-12.0603
▁mural	-12.0604
▁mason	-12.0605
▁Mao	-12.0607
▁161	-12.0608
▁Kat	-12.0608
▁morpholog	-12.061
eastern	-12.0611
▁populariz	-12.0611
▁harass	-12.0613
▁MacDonald	-12.0613
▁synagogue	-12.0613
▁resonance	-12.0613
▁tumor	-12.0613
▁governmental	-12.0614
▁inundat	-12.0615
▁atom	-12.0616
▁1821	-12.0619
asco	-12.062
▁Word	-12.0624
▁excavations	-12.0625
▁tenor	-12.0628
made	-12.0628
drich	-12.0629
▁defendants	-12.0629
▁glee	-12.0629
▁assassin	-12.0631
▁cone	-12.0633
▁177	-12.064
▁noticeabl	-12.064
▁setback	-12.0641
▁folklore	-12.0642
▁leisure	-12.0642
▁Townsend	-12.0642
▁Kanye	-12.0644
63	-12.0647
▁Buffy	-12.0647
▁Rising	-12.0648
▁Won	-12.0649
▁rigid	-12.065
▁lip	-12.065
▁Taka	-12.0651
▁Nike	-12.0652
▁Bonnie	-12.0655
▁whit	-12.0657
▁pronunciation	-12.0657
▁creep	-12.0657
defeated	-12.0658
▁cart	-12.0658
▁Helena	-12.0659
mpton	-12.0664
▁134	-12.0666
▁counts	-12.0666
▁exaggerated	-12.0667
▁Lam	-12.067
▁rig	-12.0671
wl	-12.0671
▁ceramic	-12.0671
▁provisional	-12.0672
series	-12.0674
▁Georg	-12.0675
▁Beech	-12.0675
▁plague	-12.0677
▁Highlands	-12.0678
▁Hind	-12.068
mut	-12.0684
▁surveillance	-12.0687
▁Casey	-12.0687
▁Hamlet	-12.0687
▁simulation	-12.0689
▁nail	-12.0689
RO	-12.0691
▁lobe	-12.0693
▁prohibition	-12.0694
mmer	-12.0698
▁ambulance	-12.07
▁recycl	-12.07
▁ridiculous	-12.0701
▁daylight	-12.0702
▁canop	-12.0703
oftware	-12.0703
▁1797	-12.0704
▁niche	-12.0708
▁satisfying	-12.071
▁OS	-12.0712
▁graves	-12.0713
▁Moment	-12.0713
▁butterfly	-12.0713
▁Griffith	-12.0715
▁Material	-12.0715
▁stipe	-12.0715
▁1780	-12.0717
▁milestone	-12.0718
▁1805	-12.0719
▁Hold	-12.0722
▁simplifi	-12.0722
▁Stefan	-12.0724
▁noir	-12.0725
▁logic	-12.0726
▁puts	-12.0728
▁Colonial	-12.0729
▁Malvern	-12.0729
▁transaction	-12.0729
CLC	-12.0735
▁Romantic	-12.0735
▁Coll	-12.0737
▁damn	-12.0741
▁soprano	-12.0744
city	-12.0744
▁Vickers	-12.0747
[...]
